{
  "version": "1.0",
  "truncation": null,
  "padding": null,
  "added_tokens": [
    {
      "id": 0,
      "content": "<pad>",
      "single_word": false,
      "lstrip": false,
      "rstrip": false,
      "normalized": false,
      "special": true
    },
    {
      "id": 1,
      "content": "<blank>",
      "single_word": false,
      "lstrip": false,
      "rstrip": false,
      "normalized": false,
      "special": true
    },
    {
      "id": 2,
      "content": "<unk>",
      "single_word": false,
      "lstrip": false,
      "rstrip": false,
      "normalized": false,
      "special": true
    }
  ],
  "normalizer": null,
  "pre_tokenizer": {
    "type": "ByteLevel",
    "add_prefix_space": false,
    "trim_offsets": true,
    "use_regex": true
  },
  "post_processor": null,
  "decoder": {
    "type": "ByteLevel",
    "add_prefix_space": true,
    "trim_offsets": true,
    "use_regex": true
  },
  "model": {
    "type": "BPE",
    "dropout": null,
    "unk_token": "<unk>",
    "continuing_subword_prefix": null,
    "end_of_word_suffix": null,
    "fuse_unk": false,
    "byte_fallback": false,
    "ignore_merges": false,
    "vocab": {
      "<pad>": 0,
      "<blank>": 1,
      "<unk>": 2,
      "(": 3,
      ")": 4,
      "-": 5,
      ".": 6,
      "1": 7,
      "2": 8,
      "4": 9,
      "5": 10,
      "6": 11,
      "7": 12,
      "F": 13,
      "a": 14,
      "b": 15,
      "c": 16,
      "d": 17,
      "e": 18,
      "f": 19,
      "h": 20,
      "i": 21,
      "j": 22,
      "k": 23,
      "l": 24,
      "m": 25,
      "n": 26,
      "o": 27,
      "p": 28,
      "q": 29,
      "r": 30,
      "s": 31,
      "t": 32,
      "u": 33,
      "v": 34,
      "w": 35,
      "x": 36,
      "y": 37,
      "z": 38,
      "¡": 39,
      "£": 40,
      "¦": 41,
      "§": 42,
      "©": 43,
      "ª": 44,
      "¬": 45,
      "°": 46,
      "²": 47,
      "³": 48,
      "¸": 49,
      "¹": 50,
      "¾": 51,
      "Ã": 52,
      "Å": 53,
      "É": 54,
      "Ê": 55,
      "Ë": 56,
      "Ì": 57,
      "Î": 58,
      "Ï": 59,
      "Ċ": 60,
      "Ġ": 61,
      "Ģ": 62,
      "ģ": 63,
      "Ĥ": 64,
      "ĥ": 65,
      "ĩ": 66,
      "Ī": 67,
      "Ĭ": 68,
      "ĭ": 69,
      "Į": 70,
      "į": 71,
      "İ": 72,
      "ı": 73,
      "Ĳ": 74,
      "ĳ": 75,
      "Ĵ": 76,
      "ĵ": 77,
      "Ķ": 78,
      "ķ": 79,
      "ĸ": 80,
      "Ĺ": 81,
      "Ļ": 82,
      "Ľ": 83,
      "ľ": 84,
      "Ŀ": 85,
      "Ł": 86,
      "ËĪ": 87,
      "ËĲ": 88,
      "ËĪÉ": 89,
      "ËĮ": 90,
      "ÉĻ": 91,
      "ËĪa": 92,
      "ËĪi": 93,
      "Ġt": 94,
      "Éª": 95,
      "É¾": 96,
      "ĠÉ": 97,
      "Ġk": 98,
      "Éľ": 99,
      "Ġs": 100,
      "ËĪe": 101,
      "ÉĽ": 102,
      "ËĪo": 103,
      "Ġl": 104,
      "ËĪÉĽ": 105,
      "Ġd": 106,
      "ÊĬ": 107,
      "ËĪaËĲ": 108,
      "Ġp": 109,
      "Ìĥ": 110,
      "Ġm": 111,
      "ËĪu": 112,
      "Åĭ": 113,
      "Ã°": 114,
      "ËĪÉĶ": 115,
      "ÊĮ": 116,
      "ËĮa": 117,
      "Ġh": 118,
      "ËĪÊĮ": 119,
      "Ġn": 120,
      "Êģ": 121,
      "ËĪÉĳ": 122,
      "Êĥ": 123,
      "eËĲ": 124,
      "Ġa": 125,
      "Ġb": 126,
      "ÉĶ": 127,
      "ËĪÉĻ": 128,
      "ÉĻn": 129,
      "Ġf": 130,
      "ËĪÉª": 131,
      "É¡": 132,
      "ËĪeËĲ": 133,
      "Ġj": 134,
      "nt": 135,
      "ĠÃ°": 136,
      "ĠËĮ": 137,
      "Ġts": 138,
      "ĠÉ¡": 139,
      "Éķ": 140,
      "ËĪoËĲ": 141,
      "Ê°": 142,
      "aËĲ": 143,
      "ËĪy": 144,
      "ĠtÉķ": 145,
      "ËĪiËĲ": 146,
      "ĠÊ": 147,
      "Ġv": 148,
      "Ġw": 149,
      "st": 150,
      "Éĳ": 151,
      "nd": 152,
      "ËĮi": 153,
      "Ìª": 154,
      "ËĮe": 155,
      "Ġz": 156,
      "ËĪaÉª": 157,
      "ËĪiÉĽ": 158,
      "Î²": 159,
      "É¹": 160,
      "ĠËĮa": 161,
      "Î¸": 162,
      "ĠhÉĽ": 163,
      "ÊĪ": 164,
      "iËĲ": 165,
      "ËĮo": 166,
      "ĠÉª": 167,
      "Éľn": 168,
      "Ġx": 169,
      "ĠtÉĻ": 170,
      "ËĪuËĲ": 171,
      "ËĮÉĻ": 172,
      "ĠjËĪi": 173,
      "ËĮÉĽ": 174,
      "ĠÉĽ": 175,
      "ĠËĪa": 176,
      "ËĮaËĲ": 177,
      "Ġla": 178,
      "ĠÃ°e": 179,
      "ĠhÉĽËĲ": 180,
      "Ġe": 181,
      "Ã§": 182,
      "ÉĻl": 183,
      "oËĲ": 184,
      "ËĪÉĳu": 185,
      "ÊĴ": 186,
      "uËĲ": 187,
      "ĠÉĹ": 188,
      "ĠÉķ": 189,
      "ËĮeËĲ": 190,
      "ĠtÉķËĪi": 191,
      "os": 192,
      "ËĪÉĶËĲ": 193,
      "as": 194,
      "ËĪÊĬ": 195,
      "Ġi": 196,
      "ËĪai": 197,
      "É²": 198,
      "Éªn": 199,
      "ts": 200,
      "ÉľÅĭ": 201,
      "ĠÉŁ": 202,
      "ĠÊĥ": 203,
      "ËĪeÉª": 204,
      "ÉĽÉ¾": 205,
      "ËĪÉĽËĲ": 206,
      "ËĪÉĽÉ¾": 207,
      "Ġr": 208,
      "tÊĥ": 209,
      "ËĮÉĶ": 210,
      "ĠdÉĻ": 211,
      "tÉĻ": 212,
      "ou": 213,
      "ËĪyÉĻ": 214,
      "ĠËĮi": 215,
      "ÉĻÉ¾": 216,
      "ËĪÉĻÊĬ": 217,
      "ËĪÊĮÉ¾": 218,
      "ËĪÉĴ": 219,
      "Ġth": 220,
      "ËĪon": 221,
      "Êĭ": 222,
      "ËĪÉĳËĲ": 223,
      "ËĪÊĮh": 224,
      "wËĪa": 225,
      "ËĪei": 226,
      "ll": 227,
      "ĠÉĲ": 228,
      "ÉĳËĲ": 229,
      "an": 230,
      "ÉŁ": 231,
      "ĠÊĭ": 232,
      "Ġko": 233,
      "kh": 234,
      "ÉªÅĭ": 235,
      "ËĪaËĲÉª": 236,
      "ĠtÊĥ": 237,
      "ËĪaËĲt": 238,
      "ĠËĮe": 239,
      "ĠtÉķh": 240,
      "ËĪuo": 241,
      "ËĪonÉ¡": 242,
      "Éĸ": 243,
      "at": 244,
      "Ġke": 245,
      "ÉĴ": 246,
      "ĠÉķËĪi": 247,
      "Ã¸": 248,
      "ĠÉĳ": 249,
      "ËĪeËĲk": 250,
      "Åĵ": 251,
      "re": 252,
      "ĠÉ¾": 253,
      "ĠkÉĶ": 254,
      "ËĮÊĬ": 255,
      "sk": 256,
      "ĠÊĬ": 257,
      "Ġand": 258,
      "ÉªÃ§": 259,
      "Ġme": 260,
      "ËĪaÉ¾": 261,
      "ĠËĪÉª": 262,
      "na": 263,
      "ĠÎ²": 264,
      "ĠlËĪi": 265,
      "jaËĲ": 266,
      "li": 267,
      "no": 268,
      "ĠÉªn": 269,
      "ĠdËĮi": 270,
      "ĠÉ²": 271,
      "tËĲ": 272,
      "ÉĻm": 273,
      "ĠlÉĻ": 274,
      "ĠÃ°ÉĻ": 275,
      "Éªk": 276,
      "ËĪÉĽl": 277,
      "Éľt": 278,
      "Ġse": 279,
      "es": 280,
      "ËĪou": 281,
      "ËĪaÊĬ": 282,
      "ĠÉĶ": 283,
      "Éªt": 284,
      "ĠÅĭ": 285,
      "ËĪÉĽn": 286,
      "Êİ": 287,
      "Ġkh": 288,
      "ËĪÉĽnt": 289,
      "ËĪaËĲÉ¾": 290,
      "Ġki": 291,
      "mp": 292,
      "lt": 293,
      "É£": 294,
      "Ġpa": 295,
      "ËĪÉĻËĲ": 296,
      "Éªs": 297,
      "ĠÉĴ": 298,
      "Ġle": 299,
      "ÉªÉľ": 300,
      "ËĪÉĽt": 301,
      "Ġde": 302,
      "ĠÉ¹": 303,
      "ĠtËĪoËĲ": 304,
      "ĠÊģ": 305,
      "ÊĥÉĻn": 306,
      "ĠÊĬnt": 307,
      "ËĪÉĶÉ¾": 308,
      "ËĪaÃ°": 309,
      "ĠaÉª": 310,
      "ĠÊĲ": 311,
      "ĠmËĪa": 312,
      "ra": 313,
      "ĠkËĪÉª": 314,
      "kt": 315,
      "ËĲp": 316,
      "ĠÊĪ": 317,
      "ËĪaËĲÊĬ": 318,
      "ĠkËĪÊĮÉ¾": 319,
      "ĠËĪÊĮ": 320,
      "ĠÉĴv": 321,
      "Ġel": 322,
      "ks": 323,
      "Ġkw": 324,
      "ÉĻt": 325,
      "ndo": 326,
      "ei": 327,
      "ĠËĮaËĲp": 328,
      "se": 329,
      "ÉĻÉ¹": 330,
      "ËĪuei": 331,
      "ÉĻs": 332,
      "ĠkËĮo": 333,
      "ĠÊĤ": 334,
      "ĠËĮÊĬ": 335,
      "Ġc": 336,
      "ĠÉĽn": 337,
      "ËĪant": 338,
      "Î¸j": 339,
      "ËĮoËĲ": 340,
      "ĠËĪaËĲ": 341,
      "ĠpÉ¾": 342,
      "si": 343,
      "ĠËĪe": 344,
      "ĠjuËĲ": 345,
      "ĠkËĮe": 346,
      "ËĮÉª": 347,
      "ÉĶn": 348,
      "ĠsËĪÊĮ": 349,
      "ĠËĪu": 350,
      "ni": 351,
      "Ġst": 352,
      "ĠdiËĲ": 353,
      "ĠkeËĲ": 354,
      "ĠjËĪiou": 355,
      "ËĪaiÉľ": 356,
      "ĠdÊĴ": 357,
      "ĠËĪÉĶ": 358,
      "va": 359,
      "ËĲÉ¾": 360,
      "ËĪÃ¸": 361,
      "ËĮÉĻÊĬ": 362,
      "ĠpËĪu": 363,
      "Ġsu": 364,
      "Ġma": 365,
      "ĠÉĻ": 366,
      "dÊĴ": 367,
      "ĠpÊ°": 368,
      "le": 369,
      "in": 370,
      "ĠtÉķhËĪi": 371,
      "ĠwËĪo": 372,
      "ro": 373,
      "ËĮy": 374,
      "É¾a": 375,
      "ĠsËĪi": 376,
      "Ã°ÉĻ": 377,
      "ĠseËĲ": 378,
      "la": 379,
      "ĠÊĴ": 380,
      "mb": 381,
      "ĠhËĪoËĲ": 382,
      "ĠbÊ°": 383,
      "ĠÉĽÉ¾": 384,
      "ĠÃ°at": 385,
      "sp": 386,
      "ÉĶÉ¾": 387,
      "en": 388,
      "ĠsÉĻ": 389,
      "ËĪÉĶÉľ": 390,
      "ĠlËĮa": 391,
      "ĠËĮÉĽ": 392,
      "ĠËĪy": 393,
      "É¡aËĲ": 394,
      "ĠdÉĽÉ¾": 395,
      "ËĪÉĽÊģ": 396,
      "Éľkh": 397,
      "ËĪiÉĻ": 398,
      "ËĪan": 399,
      "ĠmËĪo": 400,
      "ËĪaÎ²": 401,
      "Ġal": 402,
      "ĠËĪeËĲ": 403,
      "ĠÎ¸": 404,
      "ĠnËĪi": 405,
      "pÊ°": 406,
      "lla": 407,
      "Ġpl": 408,
      "ËĪÅĵ": 409,
      "jËĪÉĳu": 410,
      "Ġav": 411,
      "ĠmËĪi": 412,
      "ĠfËĪa": 413,
      "ËĪÉľ": 414,
      "me": 415,
      "ËĮÉĻh": 416,
      "ËĪuÉĻ": 417,
      "it": 418,
      "jËĪe": 419,
      "Ġo": 420,
      "ËĪÉľËĲ": 421,
      "ĠtÉķËĪiou": 422,
      "ÉĶËĲ": 423,
      "ĠnÉĻ": 424,
      "ËĪÉĻÉľn": 425,
      "ĠmÉĻ": 426,
      "ĠdeËĲ": 427,
      "mo": 428,
      "sa": 429,
      "jËĪÉĶ": 430,
      "ËĪal": 431,
      "ĠtÉķËĪiÉĽ": 432,
      "ĠÉ¡ÉĻ": 433,
      "Ã°a": 434,
      "ĠÉªz": 435,
      "Ġsa": 436,
      "ri": 437,
      "ĠËĮil": 438,
      "ËĮu": 439,
      "ĠkaËĲ": 440,
      "ĠÉĻËĲ": 441,
      "ĠÉĸ": 442,
      "Ġka": 443,
      "ËĪÊĮhi": 444,
      "ĠjeËĲ": 445,
      "ĠtÊ°": 446,
      "ne": 447,
      "kËĲ": 448,
      "ĠtsËĪai": 449,
      "ĠËĪeËĲk": 450,
      "nk": 451,
      "ti": 452,
      "ËĪaÉľn": 453,
      "ĠkËĲ": 454,
      "É¡ÉĻn": 455,
      "ËĪia": 456,
      "ĠÉĶËĲÉ¾": 457,
      "Êı": 458,
      "ĠËĮÊĮ": 459,
      "ĠzËĪaËĲ": 460,
      "Ġlos": 461,
      "ÉĽs": 462,
      "ËĪÉĶn": 463,
      "ÉĽnt": 464,
      "ÉĽn": 465,
      "ĠÉŁËĪoËĲ": 466,
      "Ã§t": 467,
      "Ġdas": 468,
      "ĠxËĮo": 469,
      "ËĪuÉľ": 470,
      "ËĪas": 471,
      "ĠbËĪÊĮ": 472,
      "ËĪiÉĽÉľn": 473,
      "ÉĲ": 474,
      "ĠtsuËĲ": 475,
      "ĠpËĮÉĽ": 476,
      "ĠnËĪÉĶ": 477,
      "ÊĬt": 478,
      "ma": 479,
      "ĠnËĪo": 480,
      "ĠlËĪÉª": 481,
      "ËĪÉĽs": 482,
      "Éªl": 483,
      "ĠÉķËĪiÉĽ": 484,
      "ĠËĪÊĬ": 485,
      "ÉĴt": 486,
      "to": 487,
      "ĠËĪo": 488,
      "ËĮon": 489,
      "ĠkwËĪa": 490,
      "ĠÉªt": 491,
      "ĠhoËĲ": 492,
      "ËĪiËĲk": 493,
      "ĠËĮaËĲpk": 494,
      "ËĪaÉªn": 495,
      "Ã¦": 496,
      "ÉĻnt": 497,
      "ta": 498,
      "lo": 499,
      "ĠnËĪÉĳ": 500,
      "ĠlËĪa": 501,
      "ËĪiÉľ": 502,
      "ĠwËĪei": 503,
      "ÉĽÊģ": 504,
      "ĠtËĪa": 505,
      "ĠÉ¾ËĮÉĻh": 506,
      "ĠÉķËĪiÉĳ": 507,
      "ËĮiËĲ": 508,
      "ËĮÉĽl": 509,
      "ĠtÉĻÉľ": 510,
      "ĠkËĪuo": 511,
      "ĠtËĪu": 512,
      "jËĪÉĽ": 513,
      "ĠËĮin": 514,
      "É¾e": 515,
      "ĠkoËĲ": 516,
      "ĠkËĪa": 517,
      "É¾i": 518,
      "ĠtÉķËĪiÉĳ": 519,
      "lÉĻ": 520,
      "ĠkÉĻ": 521,
      "ĠtËĪi": 522,
      "ĠÅĭËĪyÉĻ": 523,
      "Ġtsh": 524,
      "er": 525,
      "av": 526,
      "ĠkÉĶn": 527,
      "ËĪÉĻÉľÅĭ": 528,
      "Ã°o": 529,
      "ËĪaËĲn": 530,
      "ĠbÊ°ËĪi": 531,
      "ĠkËĲjaËĲ": 532,
      "ÉĻz": 533,
      "ĠpÊģ": 534,
      "ĠdËĪÉª": 535,
      "ĠziËĲ": 536,
      "É¡eËĲ": 537,
      "ĠtËĪÉĻ": 538,
      "Éªz": 539,
      "ĠnËĮon": 540,
      "taËĲ": 541,
      "bl": 542,
      "te": 543,
      "nËĮeËĲ": 544,
      "ËĪÉªl": 545,
      "so": 546,
      "ko": 547,
      "uÊģ": 548,
      "ĠÉ£": 549,
      "ĠpaÊģ": 550,
      "ĠËĪÉĽ": 551,
      "jËĪuËĲ": 552,
      "ËĮÊĮ": 553,
      "yn": 554,
      "ËĪiËĲn": 555,
      "ĠlËĪaÉª": 556,
      "ËĪÉªÅĭ": 557,
      "ĠtÉķhËĪy": 558,
      "ĠnËĪÊĮhi": 559,
      "ĠdËĮe": 560,
      "ĠjËĪÉĳu": 561,
      "ĠtËĪÉĳu": 562,
      "ĠhËĪo": 563,
      "Éªd": 564,
      "ĠthËĪÉĳ": 565,
      "mËĪe": 566,
      "ĠËĪÉĻ": 567,
      "ja": 568,
      "Ġph": 569,
      "ÉĽt": 570,
      "ĠkËĪÊĮ": 571,
      "tÉĻn": 572,
      "mËĪÉĳ": 573,
      "wËĪe": 574,
      "ĠËĮaÉªn": 575,
      "ĠÃ°Éªs": 576,
      "É¡ÉĻ": 577,
      "ĠnËĪaËĲ": 578,
      "ĠbËĪaËĲ": 579,
      "ĠaÎ¸": 580,
      "ĠmËĮa": 581,
      "ËĪÊĮha": 582,
      "ĠdËĮa": 583,
      "ËĪÊı": 584,
      "ĠÉ²ËĮy": 585,
      "ĠpËĪa": 586,
      "ËĪaÃ°o": 587,
      "di": 588,
      "bÉľ": 589,
      "É³": 590,
      "ĠwiËĲ": 591,
      "ĠnËĪÉª": 592,
      "ĠÉ¡ËĪÉĶÉľ": 593,
      "tËĲo": 594,
      "ËĮÉĻm": 595,
      "ËĪaËĲr": 596,
      "ĠmÉĽ": 597,
      "ËĪeËĲÉ¡aËĲ": 598,
      "ĠsËĮi": 599,
      "ĠlËĮaËĲ": 600,
      "nËĮaËĲ": 601,
      "Ġsp": 602,
      "tÊģ": 603,
      "ĠÊİ": 604,
      "ËĮÉĳËĲ": 605,
      "Ġkl": 606,
      "kÊ°": 607,
      "il": 608,
      "ĠÊĥt": 609,
      "ĠËĮÊĬn": 610,
      "al": 611,
      "ĠsËĪÉĽ": 612,
      "ĠmËĪaËĲ": 613,
      "ĠÅĵ": 614,
      "ĠÉ¡ËĪÊĮ": 615,
      "ĠpËĮÉĽr": 616,
      "É¾ËĪa": 617,
      "ËĲÊĪ": 618,
      "ËĪaÎ²a": 619,
      "ĠwËĪÉĴ": 620,
      "ĠxËĪuei": 621,
      "ĠkhËĪo": 622,
      "Ġlas": 623,
      "ĠÉĹËĪo": 624,
      "ĠfÉĽÉ¾": 625,
      "ĠjËĪiÉĽ": 626,
      "ĠtËĪe": 627,
      "ĠkËĮÉĶ": 628,
      "ĠdeËĲn": 629,
      "Ġmo": 630,
      "ĠpËĪi": 631,
      "ĠtËĪÉĳ": 632,
      "ËĪÉĽst": 633,
      "wËĪÉĳ": 634,
      "ËĪaÉªt": 635,
      "ÉĻÊĬ": 636,
      "ĠËĪi": 637,
      "Éªj": 638,
      "aÉª": 639,
      "ËĪaËĲÉľ": 640,
      "ĠËĪÉªs": 641,
      "ĠpÉĶÉ¾": 642,
      "Ã¦Éľn": 643,
      "ka": 644,
      "ÅĭÉ¡": 645,
      "bÉĻn": 646,
      "ÊĬf": 647,
      "ĠpÉ¹": 648,
      "ĠlËĮe": 649,
      "ËĪiËĲd": 650,
      "ËĪaËĲre": 651,
      "ĠmËĪÊĮ": 652,
      "ÉĻr": 653,
      "ĠdÉĳ": 654,
      "ËĪaËĲto": 655,
      "ĠpËĪeËĲ": 656,
      "ĠdËĪoËĲ": 657,
      "ĠsËĮÊĬ": 658,
      "ĠhËĪi": 659,
      "ĠsËĪa": 660,
      "ËĪeËĲn": 661,
      "dÉĻ": 662,
      "Ġpj": 663,
      "ËĪÅĵÊģ": 664,
      "lÉªÃ§": 665,
      "ÉĴn": 666,
      "ĠËĪÉĻr": 667,
      "tËĪe": 668,
      "Ġil": 669,
      "ËĪaËĲl": 670,
      "ĠsËĮÉĻÊĬ": 671,
      "sÊĪ": 672,
      "ĠdËĪuËĲ": 673,
      "hËĪÉĳ": 674,
      "ĠxËĪou": 675,
      "ĠlËĪaiÉľ": 676,
      "wËĪo": 677,
      "ËĪÉĽnte": 678,
      "Ġsy": 679,
      "ĠzÉªÃ§": 680,
      "ĠÉ¡ËĪu": 681,
      "ĠÉķËĪy": 682,
      "ËĪÉĶËĲl": 683,
      "ÉĶl": 684,
      "ĠtËĪo": 685,
      "ĠÊĭoËĲ": 686,
      "ĠiËĲ": 687,
      "wËĪaÃ°a": 688,
      "ËĪando": 689,
      "ĠaÎ¸ÉĽnt": 690,
      "ĠaÎ¸ÉĽntwËĪaÃ°a": 691,
      "ĠtËĪiÉĽ": 692,
      "ËĪeiÉľ": 693,
      "ĠpËĮa": 694,
      "ĠnËĪaÉª": 695,
      "wa": 696,
      "Ġfr": 697,
      "ĠÊĲËĪÉĻÉľn": 698,
      "ËĪua": 699,
      "mi": 700,
      "ĠmËĪÉĽ": 701,
      "ËĪeËĲkÊ°": 702,
      "cÊ°": 703,
      "ĠwËĪÉĳ": 704,
      "sta": 705,
      "Ġtu": 706,
      "Ġsk": 707,
      "ËĪÉĶl": 708,
      "ËĪeËĲÊĪ": 709,
      "ĠlËĪaËĲÉª": 710,
      "ĠlËĪaËĲ": 711,
      "ËĪÉĽËĲs": 712,
      "ËĪÉĽÉ¾a": 713,
      "ËĪÉĻÉľt": 714,
      "Ġyn": 715,
      "dÉĻn": 716,
      "Ġdi": 717,
      "ËĪiËĲs": 718,
      "ĠÃ°el": 719,
      "ËĪÊĮr": 720,
      "ĠhËĪaËĲ": 721,
      "ĠbÉĻ": 722,
      "ĠjËĪuËĲ": 723,
      "lle": 724,
      "sto": 725,
      "ËĪÉªt": 726,
      "ËĪoËĲÉ¾": 727,
      "bÊ°": 728,
      "mÉĻn": 729,
      "ËĮuÉĻ": 730,
      "ËĮÉĻÉ¾": 731,
      "ËĪÊĮn": 732,
      "ĠlËĪaÉªk": 733,
      "ĠbËĪa": 734,
      "ÉªÃ°": 735,
      "Ġlo": 736,
      "zi": 737,
      "ËĪÊĮst": 738,
      "mËĪi": 739,
      "ÉĶÊģ": 740,
      "ĠnËĪÉªÃ§t": 741,
      "ĠtÉ¾": 742,
      "ĠdËĪeËĲkÊ°": 743,
      "ĠsËĮe": 744,
      "ĠnËĪÉĻÊĬ": 745,
      "Ġu": 746,
      "Ġsi": 747,
      "ĠÉªÃ§": 748,
      "Ġpr": 749,
      "ĠtÉķËĪy": 750,
      "ĠmËĪu": 751,
      "za": 752,
      "ĠtÊģ": 753,
      "ĠwÉªÃ°": 754,
      "tËĪÉĽ": 755,
      "ĠpËĪÊĮÉ¾": 756,
      "ĠkËĪÉĶ": 757,
      "ËĪoËĲr": 758,
      "ĠhËĮa": 759,
      "ĠkËĪonÉ¡": 760,
      "ĠpuÊģ": 761,
      "Ġdy": 762,
      "ËĪÉªn": 763,
      "nte": 764,
      "ĠkËĮa": 765,
      "ËĪÉĻÉª": 766,
      "Ġmi": 767,
      "ĠÉ¡ËĮuÉĻ": 768,
      "ĠÊ²": 769,
      "ĠfËĪÉĳ": 770,
      "ĠvÉĳËĲ": 771,
      "ĠËĮaÊĬ": 772,
      "ËĮuËĲ": 773,
      "ĠËĪun": 774,
      "ĠjËĪÊĮha": 775,
      "juËĲ": 776,
      "ĠmÉªt": 777,
      "ĠlËĪÉĽ": 778,
      "ËĪeËĲÊĥ": 779,
      "ĠfÉĶËĲ": 780,
      "mÉĻ": 781,
      "É¾t": 782,
      "ĠkËĮon": 783,
      "ĠlËĪÉĶ": 784,
      "ĠxËĪÉĳu": 785,
      "pl": 786,
      "ĠdËĪi": 787,
      "ĠlËĪoËĲ": 788,
      "sÉĻ": 789,
      "ËĪaËĲva": 790,
      "ĠlËĪu": 791,
      "ĠÉ¡ËĮÉĻÊĬ": 792,
      "Ġhav": 793,
      "ĠËĮaËĲpkËĮoËĲ": 794,
      "É¾ËĪi": 795,
      "ĠfËĪÉĻ": 796,
      "ĠhËĮÉĻm": 797,
      "ËĪonÉ¡Éľ": 798,
      "jo": 799,
      "ĠsÉĶ": 800,
      "ËĪaËĲd": 801,
      "wËĪiÉĻ": 802,
      "ËĪand": 803,
      "ËĮaÉªn": 804,
      "tÉ¾": 805,
      "ĠËĮÉª": 806,
      "ĠËĪuna": 807,
      "ĠxwËĪÉĳ": 808,
      "ĠjÉĶËĲ": 809,
      "ÊģËĪi": 810,
      "ĠkËĪuoÉľ": 811,
      "ĠaÎ²": 812,
      "ĠÉ¡ËĪaËĲ": 813,
      "ano": 814,
      "tÉĻl": 815,
      "ĠrËĮe": 816,
      "ËĮÊĮt": 817,
      "ĠjËĪiÉĳ": 818,
      "ĠÉ¾ËĮÉĻhaËĲ": 819,
      "ĠmËĪe": 820,
      "ĠËĪyÃ¦Éľn": 821,
      "ĠfËĪu": 822,
      "Ġbl": 823,
      "nËĪi": 824,
      "sÉĻn": 825,
      "ĠaÉªn": 826,
      "ËĪiÊĬ": 827,
      "ĠÃ°eÉª": 828,
      "ĠÉªts": 829,
      "Ġ(": 830,
      "ËĪyËĲ": 831,
      "ÉĻd": 832,
      "ĠËĮo": 833,
      "ĠÉĽs": 834,
      "ĠviËĲ": 835,
      "ËĲÉ¡eËĲ": 836,
      "kËĪe": 837,
      "ĠËĪal": 838,
      "ÉĽl": 839,
      "ĠÊĮ": 840,
      "ËĲo": 841,
      "ĠkËĪo": 842,
      "ĠÊĪËĪuËĲ": 843,
      "ĠsËĪÉª": 844,
      "ËĪeËĲÉ¾": 845,
      "Éľm": 846,
      "ËĮÉĻn": 847,
      "ËĪaËĲi": 848,
      "ËĪoËĲl": 849,
      "ÉªËĮeËĲ": 850,
      "ĠÊ²ËĪy": 851,
      "ĠkËĪÉĶËĲ": 852,
      "sËĪi": 853,
      "ĠlËĪe": 854,
      "ËĮÉĴt": 855,
      "ËĪiËĲp": 856,
      "aÊģ": 857,
      "ĠÎ¸ËĪÉªÅĭ": 858,
      "ËĪÉĻËĲÉª": 859,
      "ËĪÊĮl": 860,
      "ĠhËĪoËĲtaËĲ": 861,
      "ËĪoÉª": 862,
      "nto": 863,
      "zh": 864,
      "ĠdeËĲm": 865,
      "ĠkÉĶm": 866,
      "Ê°ËĪiËĲk": 867,
      "ĠdÊĴËĪÊĮst": 868,
      "pÉ¾": 869,
      "Ġly": 870,
      "hËĪu": 871,
      "ËĪÉĶÃ¸": 872,
      "ËĪaËĲs": 873,
      "ĠËĪan": 874,
      "ĠËĪÉĴ": 875,
      "Ġkan": 876,
      "ĠtsËĪuo": 877,
      "ËĪeËĲva": 878,
      "ĠÉ¡É¾": 879,
      "Ġpo": 880,
      "ĠtÊĥËĪÉĶ": 881,
      "Êİa": 882,
      "ĠmËĮi": 883,
      "Êĥt": 884,
      "tËĪi": 885,
      "ĠhËĪÊĮ": 886,
      "tÊĥe": 887,
      "ĠfÉĶn": 888,
      "ve": 889,
      "ĠnËĮe": 890,
      "ËĪÉĶÊģ": 891,
      "iz": 892,
      "ĠsËĪuo": 893,
      "ËĪÉĽËĲr": 894,
      "wËĪaÊģ": 895,
      "ËĪaÃ°a": 896,
      "Åĭk": 897,
      "po": 898,
      "ĠkËĪi": 899,
      "ËĪad": 900,
      "ĠvËĪi": 901,
      "tÉķ": 902,
      "ĠkËĪÉĻ": 903,
      "ĠwËĪu": 904,
      "ÉĴz": 905,
      "ĠvÉĳËĲÉ¾": 906,
      "ÊģËĪÉĽ": 907,
      "ĠkËĪaËĲ": 908,
      "ke": 909,
      "nÉĻ": 910,
      "ËĪÊĮb": 911,
      "ËĪuËĲÉ¾": 912,
      "ËĮÉĻËĲ": 913,
      "ĠÊĪÊ°ËĪiËĲk": 914,
      "ĠkËĪu": 915,
      "ĠbËĮÊĮt": 916,
      "Ġat": 917,
      "ĠfÉ¹": 918,
      "ËĪax": 919,
      "ĠzoËĲ": 920,
      "ĠtËĪaËĲ": 921,
      "ĠÃ°ËĮe": 922,
      "neËĲ": 923,
      "ĠÉĳËĲ": 924,
      "ĠaÊĬf": 925,
      "am": 926,
      "ÊĬÅĭ": 927,
      "ĠÉĶËĲ": 928,
      "ĠÉķËĪiÉľÅĭ": 929,
      "ĠËĪÉĶËĲl": 930,
      "Éªm": 931,
      "jËĪo": 932,
      "ËĪiËĲÉŁ": 933,
      "ĠkwËĮÉĽ": 934,
      "ĠmËĪas": 935,
      "ÉĻh": 936,
      "ĠËĪaÊĬ": 937,
      "ËĪÉĶÉª": 938,
      "É¡ÉĻÉ¾": 939,
      "rÉĻn": 940,
      "ËĪÉªk": 941,
      "sse": 942,
      "ĠpËĪÉĳ": 943,
      "ĠÉĹËĮe": 944,
      "ĠÉĹËĪi": 945,
      "Ġaz": 946,
      "ĠÉ¡ËĪÊĮjaËĲ": 947,
      "ze": 948,
      "ĠÉĹËĮaËĲ": 949,
      "ĠfËĪi": 950,
      "ĠËĮÉĴn": 951,
      "ĠxËĪo": 952,
      "ĠËĮÊĬna": 953,
      "ĠtÊ°aËĲ": 954,
      "ĠsÉĳ": 955,
      "ËĪeÉªÊĥÉĻn": 956,
      "ĠtÉķËĪiÉľ": 957,
      "ĠÉŁaËĲ": 958,
      "pËĲ": 959,
      "Ġply": 960,
      "Î¸ËĪi": 961,
      "ËĲÉĸ": 962,
      "ĠtËĪuei": 963,
      "ĠlËĪÉĻ": 964,
      "ĠdÉĳËĲ": 965,
      "ft": 966,
      "ËĪam": 967,
      "ĠsËĪÊĮkt": 968,
      "ĠtËĪou": 969,
      "ĠpËĪiÉĽ": 970,
      "ĠËĪai": 971,
      "ĠwËĪÉĴn": 972,
      "ĠzËĮaÉªn": 973,
      "Ġest": 974,
      "ĠmÉĶ": 975,
      "ĠtÉķjËĪÉĳu": 976,
      "Éľp": 977,
      "ËĪÊĮz": 978,
      "bi": 979,
      "ËĪÉĽËĲseËĲ": 980,
      "ĠlËĪy": 981,
      "ĠmËĮe": 982,
      "ĠdËĮÉĽl": 983,
      "ËĪiËĲl": 984,
      "ĠkËĮomo": 985,
      "ĠhËĪaÉľn": 986,
      "ËĪoËĲne": 987,
      "ĠkËĪÊĮÉ¾t": 988,
      "ĠsyÊģ": 989,
      "ËĮÉĶÉ¾": 990,
      "ĠÉªf": 991,
      "uv": 992,
      "zÉĻn": 993,
      "ol": 994,
      "Ïĩ": 995,
      "im": 996,
      "ĠmËĪiÉĽ": 997,
      "ĠÃ°Éª": 998,
      "ĠvËĪÉĽ": 999,
      "ÊĬd": 1000,
      "Ġtr": 1001,
      "ËĪeËĲs": 1002,
      "Ã°e": 1003,
      "de": 1004,
      "Ê°Ïĩ": 1005,
      "ÉŁÊ°": 1006,
      "ËĮÉĻËĲÉªÉľ": 1007,
      "bËĲ": 1008,
      "ËĪÊĬk": 1009,
      "ĠnËĪÉĶÉªÉľ": 1010,
      "ĠËĮiËĲ": 1011,
      "ËĪÉĳËĲt": 1012,
      "ËĪiËĲÉ¾": 1013,
      "ĠtÉ¹": 1014,
      "É¾ÉĶ": 1015,
      "ĠwÉĴz": 1016,
      "Ġvu": 1017,
      "bÉĻl": 1018,
      "bÉĻ": 1019,
      "É¹i": 1020,
      "nts": 1021,
      "ĠsËĪaËĲ": 1022,
      "dÊ°": 1023,
      "ĠtÊĬ": 1024,
      "ĠÊİËĮi": 1025,
      "Î²a": 1026,
      "hËĪÉĻÉľÅĭ": 1027,
      "ĠsËĪiËĲ": 1028,
      "ĠpËĮaÉ¾a": 1029,
      "ËĪÉĽÉ¾ÉĶ": 1030,
      "ËĪÉªs": 1031,
      "É£o": 1032,
      "ĠËĮal": 1033,
      "or": 1034,
      "ĠbËĪÊĮh": 1035,
      "ĠkËĪoËĲ": 1036,
      "ĠtËĪÉĽ": 1037,
      "ĠpËĪo": 1038,
      "ĠÊĴÉĻ": 1039,
      "pÊģ": 1040,
      "ĠËĪaÉª": 1041,
      "hËĪÉĳÉľÅĭ": 1042,
      "ÉĻli": 1043,
      "ËĪeÉªt": 1044,
      "ĠjËĪiouÉľ": 1045,
      "ĠdËĪÉĻ": 1046,
      "ĠmËĪÉĶËĲ": 1047,
      "lËĪi": 1048,
      "ËĮyÉĻ": 1049,
      "ĠlËĪoËĲÉ¡": 1050,
      "ĠnËĪÊĮ": 1051,
      "ĠhËĪÊĬ": 1052,
      "ĠnËĪÉĻÉľÅĭ": 1053,
      "ĠÊģÉĻ": 1054,
      "zËĪi": 1055,
      "ĠtËĪuËĲ": 1056,
      "ĠkËĮome": 1057,
      "ĠlËĪeËĲ": 1058,
      "ËĪaËĲtaËĲ": 1059,
      "Ġan": 1060,
      "ĠËĪyu": 1061,
      "ĠËĮÊĮÉ¡ÉĻÉ¾": 1062,
      "ĠËĪÉªn": 1063,
      "ĠhËĪoÉĻ": 1064,
      "vÉĻ": 1065,
      "ËĪÃ¸ËĲ": 1066,
      "Î¸ja": 1067,
      "ËĪuÉĻÉľn": 1068,
      "ĠkÉĻÉ¾": 1069,
      "ËĪat": 1070,
      "jËĪÃ¸": 1071,
      "ËĪÉĽtÊģ": 1072,
      "ĠpËĪÉĳu": 1073,
      "stÉĻ": 1074,
      "ĠwÉĴt": 1075,
      "ËĪeËĲl": 1076,
      "ÊĪi": 1077,
      "ĠxËĪaiÉľ": 1078,
      "ËĪyÊģ": 1079,
      "ĠhËĪoËĲÉ¡aËĲ": 1080,
      "ĠtsËĪi": 1081,
      "ĠËĪÊĮp": 1082,
      "ĠnËĮÉĴt": 1083,
      "ĠlËĪÉªeËĲ": 1084,
      "ĠhËĪa": 1085,
      "Ġfl": 1086,
      "ĠnËĪeËĲ": 1087,
      "ËĮaËĲÉª": 1088,
      "ĠtËĪuo": 1089,
      "tÊĥËĲ": 1090,
      "sËĪe": 1091,
      "bÊ°i": 1092,
      "ĠbËĪÊĮhÊĬt": 1093,
      "ËĪÉĽnd": 1094,
      "ĠsËĪÉĶ": 1095,
      "ÉĻns": 1096,
      "ËĮÉĻl": 1097,
      "ÉĽÉľ": 1098,
      "ĠÉ¡l": 1099,
      "ËĪÉªÉ¾": 1100,
      "ËĪaËĲta": 1101,
      "ÉľËĲ": 1102,
      "ËĪÉĽnto": 1103,
      "skËĮoËĲ": 1104,
      "ËĪÉĽk": 1105,
      "tsi": 1106,
      "ĠtËĪonÉ¡": 1107,
      "ĠbiËĲ": 1108,
      "ĠhËĪaËĲÉª": 1109,
      "ĠbËĪi": 1110,
      "jj": 1111,
      "Êİi": 1112,
      "ĠkÊ°": 1113,
      "ĠsËĪo": 1114,
      "llo": 1115,
      "ĠbaÉª": 1116,
      "ĠÉĽnt": 1117,
      "ĠËĪiËĲ": 1118,
      "ĠÉ¡ËĪo": 1119,
      "É¾eËĲ": 1120,
      "ĠkÊĭ": 1121,
      "ĠmËĪeiÉľ": 1122,
      "ÊĬËĪÉĶËĲ": 1123,
      "ĠtËĪaÉª": 1124,
      "Ġsus": 1125,
      "Ġri": 1126,
      "ĠvËĮÉĽ": 1127,
      "ËĪiËĲno": 1128,
      "vano": 1129,
      "ĠdËĮiËĲ": 1130,
      "ĠÊĲËĪaÉľn": 1131,
      "ÊĤ": 1132,
      "ĠÉĲb": 1133,
      "ËĪaËĲh": 1134,
      "ÉªÊĥ": 1135,
      "ĠdËĮella": 1136,
      "tËĲi": 1137,
      "ĠËĪÊĬn": 1138,
      "ĠhiËĲ": 1139,
      "ĠbËĪaËĲt": 1140,
      "ĠthËĪi": 1141,
      "Ġam": 1142,
      "ĠËĪoËĲ": 1143,
      "Ġhu": 1144,
      "ĠkËĪÊĮh": 1145,
      "ĠzËĪÉĳËĲ": 1146,
      "ĠÉ¡ËĮÉĶ": 1147,
      "ĠËĪÉĻÊĬ": 1148,
      "yËĪi": 1149,
      "ĠlËĪÊĮ": 1150,
      "ĠdËĪeËĲ": 1151,
      "ĠsËĪÉĶËĲ": 1152,
      "skËĮeËĲ": 1153,
      "É¾o": 1154,
      "ÊģËĪÉĳ": 1155,
      "tËĪa": 1156,
      "ĠkËĪÊĬ": 1157,
      "ËĪante": 1158,
      "ĠdÉĶ": 1159,
      "ĠsËĪeÉª": 1160,
      "ĠsÉĽt": 1161,
      "É¹Éª": 1162,
      "ĠÉ¡ËĮÉĻÊĬÉªÅĭ": 1163,
      "zo": 1164,
      "ĠjËĪaËĲ": 1165,
      "ĠÉĴvÃ°ÉĻ": 1166,
      "ĠÊĿ": 1167,
      "ĠÉĽl": 1168,
      "ĠsËĪoËĲ": 1169,
      "ĠthËĪiÉľ": 1170,
      "ĠËĪÉĽl": 1171,
      "ĠlyËĮi": 1172,
      "ndÊĴ": 1173,
      "ĠÉķjËĪÉĳu": 1174,
      "Î¸a": 1175,
      "ĠÉ¾ËĮÉĻheËĲ": 1176,
      "ĠmaÉª": 1177,
      "jÉĻ": 1178,
      "ĠËĪÊĮb": 1179,
      "asjËĪÉĶ": 1180,
      "dÊģ": 1181,
      "ĠkhËĪa": 1182,
      "ĠËĪes": 1183,
      "vi": 1184,
      "fi": 1185,
      "ËĮÉĻb": 1186,
      "Ġre": 1187,
      "ĠavËĮÉĽ": 1188,
      "ĠtËĮi": 1189,
      "ĠkÉ¾": 1190,
      "ĠbÉªk": 1191,
      "ste": 1192,
      "ËĪeËĲÊĥc": 1193,
      "pt": 1194,
      "zÉĻ": 1195,
      "ĠwËĪaËĲ": 1196,
      "kl": 1197,
      "ĠsËĪÊĮm": 1198,
      "ÉªÊĪ": 1199,
      "dz": 1200,
      "vo": 1201,
      "ËĮaÊĬt": 1202,
      "nde": 1203,
      "ĠdÉĽs": 1204,
      "ĠÉŁËĪaËĲ": 1205,
      "ĠrËĮi": 1206,
      "sËĮeËĲ": 1207,
      "É¡i": 1208,
      "Ġals": 1209,
      "ËĪiÃ°o": 1210,
      "ĠnËĪiÉľn": 1211,
      "ÊĬl": 1212,
      "tsËĲ": 1213,
      "ËĪanto": 1214,
      "ĠÉĹËĪÉĻÊĬ": 1215,
      "kËĲi": 1216,
      "ĠsËĪÊĮb": 1217,
      "ĠnËĪa": 1218,
      "ĠlËĮo": 1219,
      "ĠphËĪi": 1220,
      "mËĮe": 1221,
      "Ġfa": 1222,
      "kÉĻ": 1223,
      "ĠzËĪu": 1224,
      "ns": 1225,
      "ĠÊģe": 1226,
      "ĠbËĪo": 1227,
      "ËĪaËĲti": 1228,
      "Ġman": 1229,
      "ĠlËĪiÉĳ": 1230,
      "ĠÉĹËĮyÉĻ": 1231,
      "ĠfËĪÉĶËĲ": 1232,
      "ĠkÊĭËĪeËĲÊĥc": 1233,
      "ĠxËĪÉĳ": 1234,
      "ĠtÉķËĪu": 1235,
      "jÉĻÉ¾": 1236,
      "ĠÉªst": 1237,
      "wËĪi": 1238,
      "ĠËĮaÉªnÉĻ": 1239,
      "ÉªÉ¡": 1240,
      "ĠsÊĪ": 1241,
      "ËĪiÉĻl": 1242,
      "ĠnËĪiÉĽÉľn": 1243,
      "ĠËĮÉĽËĲ": 1244,
      "ËĪaÉªnd": 1245,
      "ĠzËĪi": 1246,
      "vÉĻn": 1247,
      "mz": 1248,
      "Ã°os": 1249,
      "dÊĴËĲ": 1250,
      "jËĪa": 1251,
      "É¾ËĪÉĶ": 1252,
      "lËĪe": 1253,
      "Ê²": 1254,
      "ĠvËĪÉĶ": 1255,
      "ĠlËĪiÉĽ": 1256,
      "Î¸e": 1257,
      "mËĪente": 1258,
      "ĠÉªnÃ°ÉĻ": 1259,
      "ĠaÉªm": 1260,
      "nÉĻn": 1261,
      "ĠhÉĻm": 1262,
      "É¾aËĲ": 1263,
      "ĠsËĪuoÉľ": 1264,
      "ĠÉ²ËĪi": 1265,
      "ĠÉ¹ËĪiÉĻl": 1266,
      "lËĪa": 1267,
      "ĠbËĪÉĶ": 1268,
      "ĠkËĪai": 1269,
      "ÊģËĪa": 1270,
      "ĠwËĪÉľËĲ": 1271,
      "ĠaËĲ": 1272,
      "Ġpas": 1273,
      "ËĪÊĮs": 1274,
      "wËĪÉĽÉ¾": 1275,
      "ĠÉĹËĪe": 1276,
      "ĠhËĮatÉĻ": 1277,
      "aÉªn": 1278,
      "ĠËĪÉĶpÊ°": 1279,
      "ÊģËĪe": 1280,
      "ĠÉŁaËĲËĪeËĲÉ¡aËĲ": 1281,
      "ĠËĪÊĬs": 1282,
      "ĠtÉķhËĪiÉľ": 1283,
      "ntÊĥ": 1284,
      "ĠxËĪuo": 1285,
      "ËĪuÊģ": 1286,
      "ĠÉªm": 1287,
      "É³Éĸ": 1288,
      "ËĪyÉĻÉľkh": 1289,
      "ĠËĪyÉĽ": 1290,
      "ĠmËĮaËĲ": 1291,
      "ÅĵÊģ": 1292,
      "ĠËĪalt": 1293,
      "ĠkÉĻm": 1294,
      "Êİo": 1295,
      "ĠÉĲn": 1296,
      "Ġfy": 1297,
      "ĠËĮÉĽra": 1298,
      "ĠÉ¡ËĪÊĬ": 1299,
      "ĠpËĪÊĮ": 1300,
      "ls": 1301,
      "ĠlËĪiËĲ": 1302,
      "ĠÊĤËĪy": 1303,
      "ĠbÉªkËĪÊĮz": 1304,
      "ĠÉ¡ÉĽt": 1305,
      "ĠbÉ¾": 1306,
      "tÊ°": 1307,
      "tÉĻlËĮÉĻb": 1308,
      "xo": 1309,
      "skËĮaËĲ": 1310,
      "É²Ê²": 1311,
      "ËĪeËĲkÊĪ": 1312,
      "rÉĻ": 1313,
      "tÊĥo": 1314,
      "ĠpÊģÉĶ": 1315,
      "ĠÉ¹ËĪaÉªt": 1316,
      "ĠpËĪei": 1317,
      "ËĮÉªÃ§": 1318,
      "jËĪÉĽÉ¾": 1319,
      "tËĲa": 1320,
      "ĠÉĲbËĮaÊĬt": 1321,
      "ĠkÊĭËĪeËĲÊĥcÉĻn": 1322,
      "ĠvËĪe": 1323,
      "ÊĬÉľ": 1324,
      "ĠakËĪe": 1325,
      "ĠpËĪai": 1326,
      "vËĪÉĽ": 1327,
      "ĠÎ¸É¹": 1328,
      "Éªf": 1329,
      "ĠavËĪÉĽ": 1330,
      "ĠkËĪe": 1331,
      "dËĪi": 1332,
      "ËĪeËĲÉĸ": 1333,
      "ĠbÉĻt": 1334,
      "ÊĪÊ°": 1335,
      "teËĲ": 1336,
      "Î¸jËĪÉĶn": 1337,
      "dÉľ": 1338,
      "ĠjËĪiÉľ": 1339,
      "Ġve": 1340,
      "É£ËĪu": 1341,
      "ËĪÊĮhÉĻl": 1342,
      "ĠpÉĶ": 1343,
      "ĠÉ¡r": 1344,
      "ĠÃ°a": 1345,
      "ĠvËĪiËĲ": 1346,
      "ĠËĮÉĳËĲ": 1347,
      "ËĪÉĻÊĬnt": 1348,
      "ĠbËĪaËĲÉ¾": 1349,
      "ĠmËĪÊĮtÉĻlËĮÉĻb": 1350,
      "ld": 1351,
      "ĠtÉķËĮÉĶ": 1352,
      "pa": 1353,
      "Ã°ËĪad": 1354,
      "ËĪiÉ¾": 1355,
      "ĠxËĪu": 1356,
      "ĠlËĪiÉľÅĭ": 1357,
      "ËĪeÉªs": 1358,
      "ĠÉĹËĮeÉľn": 1359,
      "ĠthËĪiÉĽ": 1360,
      "tËĲe": 1361,
      "ĠavËĮÉĽk": 1362,
      "ĠËĮÉĶ": 1363,
      "ĠkËĪÉĳu": 1364,
      "Éªv": 1365,
      "iËĲz": 1366,
      "ËĪos": 1367,
      "ĠÉ¡É¹": 1368,
      "and": 1369,
      "ĠlËĪiou": 1370,
      "ĠËĪoÉľ": 1371,
      "É¡l": 1372,
      "ĠpËĪÉĶËĲ": 1373,
      "ĠmËĮeËĲ": 1374,
      "ĠkËĪÉĴ": 1375,
      "nos": 1376,
      "Ã§ÉĻn": 1377,
      "fÉĻn": 1378,
      "ĠsËĪÊĮktËĮeËĲ": 1379,
      "ĠËĪaÉªn": 1380,
      "ËĪoËĲre": 1381,
      "jËĪÉĽn": 1382,
      "ĠÃ°ËĪÉĽn": 1383,
      "ĠtÉķhËĪiÉĽÉľn": 1384,
      "ĠhËĪaÉª": 1385,
      "É¾ËĪÉĽ": 1386,
      "ĠsËĪu": 1387,
      "ĠkËĪÉªjaËĲ": 1388,
      "ĠpjËĮÊĬ": 1389,
      "ĠhÉĻmËĮaËĲ": 1390,
      "ĠËĮÊĮp": 1391,
      "ĠpËĪÊĮhÉĻl": 1392,
      "ĠxËĪÉĻ": 1393,
      "dËĪe": 1394,
      "ĠmÉĳ": 1395,
      "ĠÊĬm": 1396,
      "ndÉĻ": 1397,
      "ĠdËĪÉĻÊĬnt": 1398,
      "ËĪeËĲÊĥÉĻn": 1399,
      "ĠÃ°ats": 1400,
      "is": 1401,
      "ĠcËĪaËĲh": 1402,
      "pe": 1403,
      "ĠsËĮo": 1404,
      "ĠÃ°ËĪe": 1405,
      "ĠsËĪaËĲt": 1406,
      "ËĪaÊģ": 1407,
      "ĠsËĪe": 1408,
      "ÉĻk": 1409,
      "ÉªÊĭ": 1410,
      "ĠkËĪoËĲi": 1411,
      "kÉĶ": 1412,
      "ĠvËĪaËĲÊĬ": 1413,
      "ĠfËĪei": 1414,
      "ĠlËĪeËĲk": 1415,
      "ĠhËĪiÉĻ": 1416,
      "ĠaÊĬ": 1417,
      "ËĪÉĽndo": 1418,
      "ËĪes": 1419,
      "ĠzËĪÉĶ": 1420,
      "ĠËĪÉĽÉ¾a": 1421,
      "nËĪiÉľn": 1422,
      "ĠkËĪÊĮm": 1423,
      "ĠlËĪÉĴ": 1424,
      "Éªst": 1425,
      "ĠpÉĳ": 1426,
      "ĠfËĪÉĶ": 1427,
      "ĠthËĪonÉ¡": 1428,
      "nke": 1429,
      "ËĮÉªk": 1430,
      "ĠÉ²ËĪÉĻ": 1431,
      "ËĮÊĮm": 1432,
      "ËĪiËĲt": 1433,
      "ĠwËĪÉĴnt": 1434,
      "ËĪaÎ²an": 1435,
      "ĠbËĪÊĮr": 1436,
      "ÉĽnd": 1437,
      "ĠËĮÉĳËĲbÉľ": 1438,
      "ĠvËĪaÉª": 1439,
      "ĠtÊĥËĮi": 1440,
      "ĠÎ¸ËĪÉªÅĭk": 1441,
      "sti": 1442,
      "ĠkÉ¹": 1443,
      "ĠËĪaÊĬt": 1444,
      "stÉĻn": 1445,
      "ĠÊĭËĪÊĮn": 1446,
      "ĠÉ¡ËĮaËĲ": 1447,
      "ËĪaËĲÉľÉ²": 1448,
      "Êģi": 1449,
      "ĠnËĪÉĶx": 1450,
      "ĠÉ¹ËĪiÉĻlÉª": 1451,
      "ĠvËĮi": 1452,
      "ĠÃ°eÉĻ": 1453,
      "ËĮÉªtÊĥ": 1454,
      "ĠvËĪyÉĻ": 1455,
      "ĠËĮaËĲpkËĮaËĲ": 1456,
      "ĠfËĮaËĲÉª": 1457,
      "ĠpËĪÉĶ": 1458,
      "ĠnËĪÊĮmb": 1459,
      "Î¸es": 1460,
      "jËĪÉĽÊģ": 1461,
      "ĠkËĪÊĬcÊ°": 1462,
      "mËĪÉĽ": 1463,
      "ĠvËĪu": 1464,
      "ĠlÅĵÊģ": 1465,
      "ĠiËĲm": 1466,
      "ÊĪÉĻÉ¾": 1467,
      "tÊĥi": 1468,
      "ËĲs": 1469,
      "ĠtËĪy": 1470,
      "ĠmËĪiÉľÅĭ": 1471,
      "É¾ËĪe": 1472,
      "mËĮa": 1473,
      "ĠmËĮiËĲ": 1474,
      "ĠÉĽks": 1475,
      "Éªp": 1476,
      "ĠkËĪÊĮÉ¾nËĮaËĲ": 1477,
      "ĠËĮaÊĬx": 1478,
      "rËĪiËĲ": 1479,
      "ĠcËĪÊĮl": 1480,
      "mos": 1481,
      "ĠkËĪÊĮÉ¾tËĮeËĲ": 1482,
      "iËĲÉ¾": 1483,
      "kÉĻn": 1484,
      "ĠdËĪu": 1485,
      "naËĲ": 1486,
      "ĠpwËĪe": 1487,
      "ËĮÉĶÉª": 1488,
      "ĠtÉķhËĪiÉĽ": 1489,
      "ĠÎ²ËĪi": 1490,
      "ËĪiÉĽÉľt": 1491,
      "Ġte": 1492,
      "ËĪaÃ°os": 1493,
      "mËĪa": 1494,
      "ĠvËĪo": 1495,
      "ĠmËĪÉª": 1496,
      "ĠbËĮi": 1497,
      "ad": 1498,
      "do": 1499,
      "ĠnËĪaÊĬ": 1500,
      "ĠÊ²ËĪyÉľ": 1501,
      "wËĪÉĽ": 1502,
      "ËĪis": 1503,
      "el": 1504,
      "Ġpar": 1505,
      "ĠtËĪai": 1506,
      "ĠdËĪÉªjaËĲ": 1507,
      "hËĪi": 1508,
      "ĠÉ¾ËĪÊĮ": 1509,
      "ĠdËĪe": 1510,
      "ËĪaÉªd": 1511,
      "Ġper": 1512,
      "ĠsËĮÉĶ": 1513,
      "we": 1514,
      "ÊĬm": 1515,
      "Ġin": 1516,
      "ĠjËĪuËĲz": 1517,
      "ËĪiËĲpÉĻl": 1518,
      "ĠÊĭËĪaËĲl": 1519,
      "ĠetËĪÉĽ": 1520,
      "ËĮÉĽm": 1521,
      "ĠnËĪu": 1522,
      "ËĪÉĽkt": 1523,
      "ĠiËĲÉ¾": 1524,
      "ĠbÉ¹": 1525,
      "ĠtshËĪi": 1526,
      "ĠÉĹËĪÉĶÉľ": 1527,
      "ĠkwËĮa": 1528,
      "ĠfËĪuÉľ": 1529,
      "wËĮa": 1530,
      "ĠdËĪiËĲ": 1531,
      "ĠÉ¡ËĪyÉĻ": 1532,
      "ËĮÉĽËĲ": 1533,
      "rËĪa": 1534,
      "Ġne": 1535,
      "ĠzËĪyÉĻ": 1536,
      "ĠbËĪaÉª": 1537,
      "ĠÉŁËĪÊĮb": 1538,
      "ËĪuËĲto": 1539,
      "ÊĬnt": 1540,
      "ĠcÊ°": 1541,
      "ËĪÉĽnti": 1542,
      "ËĪoÉĻ": 1543,
      "ĠsËĮÊĮm": 1544,
      "ĠlÉĳ": 1545,
      "ËĮeva": 1546,
      "É¾ÉĽ": 1547,
      "ntÉľ": 1548,
      "ĠmËĪÉĽn": 1549,
      "ËĪÉĳËĲk": 1550,
      "Ġkil": 1551,
      "ËĪones": 1552,
      "ff": 1553,
      "ĠmËĪÉĽËĲ": 1554,
      "ĠvËĪÉĻÉª": 1555,
      "ĠËĪÉĶËĲ": 1556,
      "ĠËĮÉªnt": 1557,
      "ÊĬn": 1558,
      "ĠwÉªl": 1559,
      "Ġsin": 1560,
      "ĠËĮalla": 1561,
      "ĠaÎ²ËĪia": 1562,
      "pi": 1563,
      "ËĪoÉľ": 1564,
      "ÉªjËĮaËĲ": 1565,
      "ku": 1566,
      "ĠvËĪÉª": 1567,
      "Ġtut": 1568,
      "ĠtËĪeÉľ": 1569,
      "ĠhËĪÉĶ": 1570,
      "Î²É¾e": 1571,
      "sÉĻÉ¾": 1572,
      "ĠkhËĪai": 1573,
      "ĠmËĪÉĶ": 1574,
      "Ġta": 1575,
      "ĠÉ²ËĪaËĲ": 1576,
      "Ġnu": 1577,
      "ËĪuËĲn": 1578,
      "ĠÉĻËĲÉľ": 1579,
      "ĠËĪaÊĬf": 1580,
      "ËĪiËĲdÉľ": 1581,
      "nti": 1582,
      "ĠpËĪiËĲpÉĻl": 1583,
      "Ġkj": 1584,
      "Ġpe": 1585,
      "ĠmËĪÉĳ": 1586,
      "ËĮaÉª": 1587,
      "ËĪaËĲle": 1588,
      "ĠvËĮÉĻËĲÉªÉľ": 1589,
      "mpo": 1590,
      "ĠkËĪÉªt": 1591,
      "ĠnËĮÉĽ": 1592,
      "ĠÉŁËĪaËĲtaËĲ": 1593,
      "ĠsËĪaËĲtÊ°": 1594,
      "ĠÉŁËĪi": 1595,
      "Ġso": 1596,
      "ĠbËĪÉĽ": 1597,
      "kËĪi": 1598,
      "Éªti": 1599,
      "Ġtsi": 1600,
      "ĠkÊģ": 1601,
      "ËĮÉĴ": 1602,
      "É¡ÉĻl": 1603,
      "kst": 1604,
      "ĠmËĪÉĻËĲ": 1605,
      "ËĪÊĮk": 1606,
      "ĠnËĪaËĲÊĬ": 1607,
      "Ġap": 1608,
      "ĠlËĪÉªkÊ°": 1609,
      "lli": 1610,
      "ĠkwËĪal": 1611,
      "ĠËĪÉĻËĲ": 1612,
      "ĠtsËĪuei": 1613,
      "Ġdo": 1614,
      "ĠkËĲjËĪo": 1615,
      "ÊĬz": 1616,
      "ĠpËĪaËĲ": 1617,
      "ĠmËĪuËĲ": 1618,
      "ĠÉ¡ÉĻv": 1619,
      "rËĪi": 1620,
      "Ġtw": 1621,
      "ËĮÉªn": 1622,
      "dËĪÉĳ": 1623,
      "ĠÃ°ËĪi": 1624,
      "ĠËĪaËĲi": 1625,
      "ĠhËĪiÉĽ": 1626,
      "ĠÃ°ËĮÉĽm": 1627,
      "ĠpÊ°ËĪÉªÉ¾": 1628,
      "ÉĴm": 1629,
      "ĠËĮeËĲ": 1630,
      "ĠthËĪaiÉľ": 1631,
      "ĠvËĪas": 1632,
      "ĠnÉĳËĲ": 1633,
      "pÉĻn": 1634,
      "ĠpËĮÉĻÉ¾": 1635,
      "ĠÉĹËĪaËĲÉª": 1636,
      "ËĪouÉľ": 1637,
      "ĠÊĲËĪuÉľ": 1638,
      "ĠmËĪan": 1639,
      "ĠtËĪÉĻÉªÉľ": 1640,
      "ĠlËĪaËĲÊĬ": 1641,
      "mËĪÉĽnte": 1642,
      "ĠfËĪam": 1643,
      "sjËĪÉĶ": 1644,
      "ĠpËĪÉĻ": 1645,
      "ËĪeËĲm": 1646,
      "ĠpËĪÊĮr": 1647,
      "jËĪi": 1648,
      "ĠlÉĽ": 1649,
      "Ġten": 1650,
      "ËĪoËĲra": 1651,
      "ki": 1652,
      "ĠÊĤËĪaËĲÊĬ": 1653,
      "kÉª": 1654,
      "bËĲe": 1655,
      "ËĪalt": 1656,
      "Ã°Éª": 1657,
      "pËĪi": 1658,
      "ĠËĮÉĽnt": 1659,
      "ĠmËĪei": 1660,
      "ĠhËĪÉĻÊĬ": 1661,
      "ĠhËĪÉĽÉ¾": 1662,
      "jËĪÉĳ": 1663,
      "ĠhËĪÊĬaËĲ": 1664,
      "mÉľ": 1665,
      "ĠdÊ°": 1666,
      "ĠtÊĥËĪe": 1667,
      "lËĪÉĽ": 1668,
      "ËĪaËĲte": 1669,
      "ĠpËĪuËĲ": 1670,
      "ĠmËĪÊĬ": 1671,
      "ËĪaËĲÉªÊĪ": 1672,
      "diËĲ": 1673,
      "ĠfÉ¹ÉĴm": 1674,
      "ĠhËĪÉĳËĲ": 1675,
      "Î²o": 1676,
      "ĠmËĪiÉľn": 1677,
      "ĠÃ°iËĲz": 1678,
      "ĠkËĪou": 1679,
      "ËĪiËĲna": 1680,
      "ĠavËĮeva": 1681,
      "ĠËĪaËĲÉ¾": 1682,
      "ĠnËĪuËĲÉ¾": 1683,
      "ĠÎ²ËĪe": 1684,
      "ĠzaÉªn": 1685,
      "ËĪÉĽd": 1686,
      "ÉĹ": 1687,
      "ËĪeÉªk": 1688,
      "sËĮÉĻÊĬ": 1689,
      "ËĪeËĲÉŁ": 1690,
      "ĠÊĤËĪÉĻËĲ": 1691,
      "je": 1692,
      "cÊ°ËĲ": 1693,
      "ËĪÉĶr": 1694,
      "ÉĽËĲ": 1695,
      "ĠtÉķhËĪyÃ¦Éľn": 1696,
      "ĠËĮaÉªnÉĻn": 1697,
      "ĠiËĲn": 1698,
      "ĠbËĪÊĮc": 1699,
      "ËĪiËĲm": 1700,
      "É¾as": 1701,
      "ËĮÉĻs": 1702,
      "ĠvËĪeËĲ": 1703,
      "ĠËĪÉĻrÉľ": 1704,
      "ĠduËĲ": 1705,
      "ntÉĻ": 1706,
      "ĠpÉ¹ËĪÉĴ": 1707,
      "ĠbËĪÉª": 1708,
      "ĠwËĪoÉľ": 1709,
      "nËĮi": 1710,
      "ĠhÉĲ": 1711,
      "ĠkËĪÉĽ": 1712,
      "Ġet": 1713,
      "jËĪÉĽndo": 1714,
      "ĠËĪaiÉľ": 1715,
      "Ġli": 1716,
      "ĠËĪaÊĬs": 1717,
      "kËĲo": 1718,
      "ĠÉĹËĪyÉĻ": 1719,
      "keËĲ": 1720,
      "ĠfËĪiËĲl": 1721,
      "ĠbÊ°ËĪaËĲi": 1722,
      "ĠÉ¡ÉĻÊĥ": 1723,
      "ÊĴËĪe": 1724,
      "ĠnjËĪuËĲ": 1725,
      "ĠËĪak": 1726,
      "ĠÉĹËĪaËĲ": 1727,
      "zËĪa": 1728,
      "vËĪe": 1729,
      "ĠhËĮaÊĬ": 1730,
      "ÉĲÃ§": 1731,
      "ĠÉ¾ËĪÊĮkÊ°": 1732,
      "pËĪe": 1733,
      "ĠtÉĻbi": 1734,
      "ĠpËĪÊĮhÉĻlËĮeËĲ": 1735,
      "ĠfËĪÉĽ": 1736,
      "ĠwËĮÉªtÊĥ": 1737,
      "ĠtÉķËĪyÉĽÉľ": 1738,
      "wËĮe": 1739,
      "ËĮaÉªt": 1740,
      "ĠnÉĳËĲx": 1741,
      "ĠkËĪÉĶËĲn": 1742,
      "ÊĬk": 1743,
      "ĠbËĪaËĲd": 1744,
      "ÅĭÉĻn": 1745,
      "Ġni": 1746,
      "ĠbËĪe": 1747,
      "ĠmËĮÊĬ": 1748,
      "ËĪar": 1749,
      "ĠmËĮeÉªk": 1750,
      "ĠsËĪaËĲÉ¾": 1751,
      "Î²e": 1752,
      "ĠtÉķhËĪiÉľÅĭ": 1753,
      "itËĪe": 1754,
      "kËĮe": 1755,
      "ËĪÉĽËĲl": 1756,
      "ËĮÉĴn": 1757,
      "ËĮÉĳ": 1758,
      "ĠbËĪÉªl": 1759,
      "ĠwÊĬd": 1760,
      "ĠbËĪoËĲl": 1761,
      "rd": 1762,
      "iÉĻ": 1763,
      "Ġda": 1764,
      "ĠbËĪaËĲÊĬ": 1765,
      "ĠnËĪÊĮmbÉĻÉ¾": 1766,
      "ËĪaËĲÉªÉľ": 1767,
      "ĠÉĽm": 1768,
      "ĠmiËĲÉ¾": 1769,
      "ËĪeÉªm": 1770,
      "los": 1771,
      "ËĮÉĽt": 1772,
      "ĠËĮaÊĬs": 1773,
      "ĠmËĪaÉľt": 1774,
      "ĠwËĪuÉĻ": 1775,
      "ĠwËĪeÉª": 1776,
      "ĠseÉ²": 1777,
      "ĠbjËĪÉĽ": 1778,
      "ĠwÉĽn": 1779,
      "fl": 1780,
      "ĠkhwËĪa": 1781,
      "dËĪÉĽ": 1782,
      "vÉ¹Éª": 1783,
      "ĠËĪaÉ¾": 1784,
      "jËĪÉĳuÉľ": 1785,
      "ĠËĮaËĲpkËĮeËĲ": 1786,
      "bÊģ": 1787,
      "ĠtËĪaÉªm": 1788,
      "ĠËĪÉĳ": 1789,
      "ĠsËĮa": 1790,
      "ĠzËĪoÉª": 1791,
      "ËĪÉĶÉ¾a": 1792,
      "ĠdËĪÃ¸": 1793,
      "ËĪÉĶÉ¾t": 1794,
      "ĠÅĭËĪÉĶ": 1795,
      "min": 1796,
      "ĠlËĪÊĬk": 1797,
      "ËĪÉĶËĲt": 1798,
      "ĠËĪÉĶtÉ¾": 1799,
      "ĠfËĪaÉª": 1800,
      "ĠÉ¡ÉĴt": 1801,
      "ËĪeËĲÉĻn": 1802,
      "kËĪÉĶ": 1803,
      "ĠvËĪÉĽÉ¹i": 1804,
      "mÉĽ": 1805,
      "ËĪaÉªz": 1806,
      "Ġesp": 1807,
      "É²a": 1808,
      "ĠlËĪo": 1809,
      "ËĪÉĽËĲra": 1810,
      "Î²ËĪi": 1811,
      "ouÉľ": 1812,
      "ËĮÉĻk": 1813,
      "tÊĥuËĲ": 1814,
      "ĠnËĪyÉĻ": 1815,
      "ÊĪÉ¾": 1816,
      "ĠÉ¡ËĪy": 1817,
      "ĠtËĪoÃ°o": 1818,
      "ËĪÉªÃ§t": 1819,
      "ĠmÉªÃ§": 1820,
      "ĠËĪand": 1821,
      "ĠkwËĮÉĽl": 1822,
      "ĠÊĤËĪaËĲ": 1823,
      "ĠnËĪiÉľ": 1824,
      "ËĪÉĶp": 1825,
      "ËĪiËĲz": 1826,
      "ĠÊĤËĪaÊĬ": 1827,
      "ĠÉ¾ËĮÉĻhi": 1828,
      "ĠsËĮÊĬo": 1829,
      "ĠÉĽÉ¡": 1830,
      "ĠdÅĵ": 1831,
      "ĠÉ¡ËĮaËĲÉªÉľ": 1832,
      "dÉª": 1833,
      "lËĮa": 1834,
      "stËĪi": 1835,
      "ĠdËĮiËĲz": 1836,
      "ĠtËĮÊĬ": 1837,
      "Î¸i": 1838,
      "ĠËĪÉªskËĮoËĲ": 1839,
      "ndÉĻn": 1840,
      "Ġtsv": 1841,
      "ĠhËĪÉĻËĲ": 1842,
      "ĠÊĥËĪÊĬ": 1843,
      "ÉĻtËĮeËĲ": 1844,
      "pËĮÉĽ": 1845,
      "ËĪaÉ¾ÉĶn": 1846,
      "ĠpÉĽÊģ": 1847,
      "Ġy": 1848,
      "mnËĮeËĲ": 1849,
      "ËĪÉĽllo": 1850,
      "ĠÉ¡ËĪÉĻ": 1851,
      "ĠËĮad": 1852,
      "ĠÊĥv": 1853,
      "ËĪÊıÉ¾": 1854,
      "rËĪe": 1855,
      "yËĲ": 1856,
      "ĠpËĪaËĲs": 1857,
      "ĠËĪÉĽn": 1858,
      "ÉªdÊĴ": 1859,
      "ËĪuai": 1860,
      "Ġfi": 1861,
      "ĠtËĪyÉĻ": 1862,
      "ËĪaËĲÉŁ": 1863,
      "ĠtjËĪe": 1864,
      "ËĪaËĲnaËĲ": 1865,
      "stÉ¾": 1866,
      "Êİe": 1867,
      "ËĮeÉªt": 1868,
      "ba": 1869,
      "Ã°as": 1870,
      "vÊģ": 1871,
      "ĠzËĪÉĻËĲ": 1872,
      "ËĪaËĲli": 1873,
      "ÉŁÊ°eËĲ": 1874,
      "ËĪaËĲteËĲ": 1875,
      "ĠvËĪa": 1876,
      "Ġsal": 1877,
      "ËĪaËĲno": 1878,
      "ĠÉ¡ÉĻz": 1879,
      "ĠhËĪoËĲti": 1880,
      "ĠÉ²ËĪiÉĽ": 1881,
      "tÉľ": 1882,
      "ĠËĪaËĲp": 1883,
      "ĠwËĪÉĽl": 1884,
      "ĠmËĪÉªl": 1885,
      "ĠfyËĲÉ¾": 1886,
      "ËĪÉĽËĲsaËĲ": 1887,
      "ĠbËĮiËĲ": 1888,
      "ËĪaËĲjaËĲ": 1889,
      "ËĪÉªp": 1890,
      "ĠfÊģ": 1891,
      "tsiËĪoËĲne": 1892,
      "ĠwËĪuÉľ": 1893,
      "Ġvi": 1894,
      "ĠwËĪÉĳÉľn": 1895,
      "ËĪoËĲn": 1896,
      "ĠÉĹËĪÉĻÉª": 1897,
      "ĠÊĿËĪo": 1898,
      "Ġra": 1899,
      "mÉĻnt": 1900,
      "ËĪaÊĬnd": 1901,
      "ĠpÉĽÉ¾": 1902,
      "ĠÉĹËĪaËĲÊĬ": 1903,
      "oËĲÉ¾": 1904,
      "hËĪo": 1905,
      "ĠÉĴn": 1906,
      "ĠÊİe": 1907,
      "ĠsËĪÉªks": 1908,
      "É¡n": 1909,
      "ĠÉ¡ËĪa": 1910,
      "ĠÎ¸j": 1911,
      "ĠpËĪe": 1912,
      "spe": 1913,
      "ĠvËĪÉĻ": 1914,
      "ĠfËĪÉª": 1915,
      "ĠËĮÉªntÊĬ": 1916,
      "lÉĻn": 1917,
      "ĠnËĪiËĲd": 1918,
      "ĠsËĮÊĬa": 1919,
      "ĠËĪum": 1920,
      "ĠdËĪeÉª": 1921,
      "ĠËĪÊĮbÊ°i": 1922,
      "ËĪÉĳËĲÉ¾": 1923,
      "ĠbËĪiÉĽÉľt": 1924,
      "Êİos": 1925,
      "ĠtshËĪaiÉľ": 1926,
      "ĠËĮÉªskËĮaËĲ": 1927,
      "ĠaÊĬÉĻ": 1928,
      "ĠËĪyÃ¦": 1929,
      "Ġdyn": 1930,
      "ĠmËĪiËĲn": 1931,
      "ĠËĪÊĮcÊ°ËĲ": 1932,
      "ĠsÉĽ": 1933,
      "ĠnËĪy": 1934,
      "ĠnËĮÉĽl": 1935,
      "É¡É¾": 1936,
      "ÊĥËĪe": 1937,
      "ĠÊĤËĮÉĽ": 1938,
      "ĠËĪÉĽvÉ¹Éª": 1939,
      "ËĪÉĽlp": 1940,
      "ĠbËĪak": 1941,
      "ĠeËĲ": 1942,
      "ĠfËĪaËĲ": 1943,
      "ĠkÉĽl": 1944,
      "ĠËĪeËĲs": 1945,
      "jËĪaËĲd": 1946,
      "ĠlËĮi": 1947,
      "mbÉ¾e": 1948,
      "ktÉĻ": 1949,
      "nta": 1950,
      "tËĪu": 1951,
      "ĠÃ°ËĪat": 1952,
      "ĠËĪaÎ²": 1953,
      "ÉĻÉ¹i": 1954,
      "ĠkwËĮÉĽlla": 1955,
      "ĠbÉĻn": 1956,
      "rËĮÉĽ": 1957,
      "ĠnÉĶ": 1958,
      "ĠÉ¡ËĪÉª": 1959,
      "ĠËĪap": 1960,
      "É¹ÉĻ": 1961,
      "ËĪaÉľkh": 1962,
      "ĠÊĲËĪi": 1963,
      "ĠËĪÉĳËĲ": 1964,
      "ÉªÉ¡ÉĻn": 1965,
      "ĠwËĪai": 1966,
      "ĠpÉĻt": 1967,
      "kËĲa": 1968,
      "ĠbËĪÉĽËĲ": 1969,
      "ËĪeËĲÊĭ": 1970,
      "lsÉĻÊĬ": 1971,
      "ĠcËĪaËĲhÉªËĮeËĲ": 1972,
      "ĠkÉĻn": 1973,
      "ĠËĮaÉªnÉĻm": 1974,
      "ËĪuËĲt": 1975,
      "ĠhËĪaÊĬ": 1976,
      "ĠtËĪanto": 1977,
      "ĠhÉĲz": 1978,
      "ĠsËĪÊĮÉ¾": 1979,
      "Ġno": 1980,
      "ĠtËĪÉĶËĲ": 1981,
      "ĠzËĪaÉª": 1982,
      "ĠtÉķËĪiÉĽÉľ": 1983,
      "ĠkozËĪi": 1984,
      "ĠkËĪei": 1985,
      "Ã°ËĪÉĶÉ¾": 1986,
      "ËĮÉĶÊģ": 1987,
      "ĠtËĪÊĮÉ¾": 1988,
      "ĠÊĲËĪÉĻ": 1989,
      "ĠÉķËĪyÉĽÉľ": 1990,
      "ĠmËĮÊĬÉŁÊ°eËĲ": 1991,
      "mf": 1992,
      "ĠvËĪiËĲdÉľ": 1993,
      "kËĪa": 1994,
      "ĠÉĲÉ¡": 1995,
      "kw": 1996,
      "ĠÊģÉĽ": 1997,
      "xÉĻn": 1998,
      "ĠdÊĬ": 1999,
      "ĠkËĪÊĮÉ¾nËĮeËĲ": 2000,
      "jËĪaËĲdaËĲ": 2001,
      "ĠfÉĻ": 2002,
      "ĠËĮimp": 2003,
      "ĠhÉªz": 2004,
      "ĠÊ°Ïĩ": 2005,
      "ËĪoËĲni": 2006,
      "ĠxËĪiÉľ": 2007,
      "ËĪeËĲsÊĪ": 2008,
      "ÊıbÉľ": 2009,
      "ËĮÉĶÉ¾ke": 2010,
      "ĠÉ¡ËĪÉĻÊĬ": 2011,
      "ËĪÉªÊĥÉĻn": 2012,
      "les": 2013,
      "ĠfËĪiËĲ": 2014,
      "É¡tÉĻ": 2015,
      "ËĪeËĲre": 2016,
      "ĠvËĮaËĲ": 2017,
      "ĠËĪeÉª": 2018,
      "ĠmËĪuÉĻÉľn": 2019,
      "ĠÉ¡ËĪÊĬd": 2020,
      "ĠmËĮaÉªn": 2021,
      "zËĪe": 2022,
      "ĠlËĪiÉľ": 2023,
      "Ġmu": 2024,
      "ĠkËĮÉĽl": 2025,
      "ĠjËĮÉĻh": 2026,
      "ĠfËĮÉĶÉ¾": 2027,
      "fÉ¹": 2028,
      "ĠkËĪaÉªn": 2029,
      "ĠËĪÉĴlsÉĻÊĬ": 2030,
      "Î¸ÉªÅĭ": 2031,
      "ĠthËĪonÉ¡Éľ": 2032,
      "tËĪÉĳ": 2033,
      "Î¸jo": 2034,
      "mËĪÉĶ": 2035,
      "Ġos": 2036,
      "ĠsÊĬ": 2037,
      "ĠsËĪÊĮmÉĻ": 2038,
      "ĠvËĮÉĽn": 2039,
      "nËĪo": 2040,
      "ĠËĪaktÊĥuËĲ": 2041,
      "É£a": 2042,
      "ĠtÊ°i": 2043,
      "ĠfËĮi": 2044,
      "ĠvËĪÉĽl": 2045,
      "ĠtËĪutËĲi": 2046,
      "xos": 2047
    },
    "merges": [
      [
        "Ë",
        "Ī"
      ],
      [
        "Ë",
        "Ĳ"
      ],
      [
        "ËĪ",
        "É"
      ],
      [
        "Ë",
        "Į"
      ],
      [
        "É",
        "Ļ"
      ],
      [
        "ËĪ",
        "a"
      ],
      [
        "ËĪ",
        "i"
      ],
      [
        "Ġ",
        "t"
      ],
      [
        "É",
        "ª"
      ],
      [
        "É",
        "¾"
      ],
      [
        "Ġ",
        "É"
      ],
      [
        "Ġ",
        "k"
      ],
      [
        "É",
        "ľ"
      ],
      [
        "Ġ",
        "s"
      ],
      [
        "ËĪ",
        "e"
      ],
      [
        "É",
        "Ľ"
      ],
      [
        "ËĪ",
        "o"
      ],
      [
        "Ġ",
        "l"
      ],
      [
        "ËĪÉ",
        "Ľ"
      ],
      [
        "Ġ",
        "d"
      ],
      [
        "Ê",
        "Ĭ"
      ],
      [
        "ËĪa",
        "ËĲ"
      ],
      [
        "Ġ",
        "p"
      ],
      [
        "Ì",
        "ĥ"
      ],
      [
        "Ġ",
        "m"
      ],
      [
        "ËĪ",
        "u"
      ],
      [
        "Å",
        "ĭ"
      ],
      [
        "Ã",
        "°"
      ],
      [
        "ËĪÉ",
        "Ķ"
      ],
      [
        "Ê",
        "Į"
      ],
      [
        "ËĮ",
        "a"
      ],
      [
        "Ġ",
        "h"
      ],
      [
        "ËĪ",
        "ÊĮ"
      ],
      [
        "Ġ",
        "n"
      ],
      [
        "Ê",
        "ģ"
      ],
      [
        "ËĪÉ",
        "ĳ"
      ],
      [
        "Ê",
        "ĥ"
      ],
      [
        "e",
        "ËĲ"
      ],
      [
        "Ġ",
        "a"
      ],
      [
        "Ġ",
        "b"
      ],
      [
        "É",
        "Ķ"
      ],
      [
        "ËĪÉ",
        "Ļ"
      ],
      [
        "ÉĻ",
        "n"
      ],
      [
        "Ġ",
        "f"
      ],
      [
        "ËĪÉ",
        "ª"
      ],
      [
        "É",
        "¡"
      ],
      [
        "ËĪe",
        "ËĲ"
      ],
      [
        "Ġ",
        "j"
      ],
      [
        "n",
        "t"
      ],
      [
        "Ġ",
        "Ã°"
      ],
      [
        "Ġ",
        "ËĮ"
      ],
      [
        "Ġt",
        "s"
      ],
      [
        "ĠÉ",
        "¡"
      ],
      [
        "É",
        "ķ"
      ],
      [
        "ËĪo",
        "ËĲ"
      ],
      [
        "Ê",
        "°"
      ],
      [
        "a",
        "ËĲ"
      ],
      [
        "ËĪ",
        "y"
      ],
      [
        "Ġt",
        "Éķ"
      ],
      [
        "ËĪi",
        "ËĲ"
      ],
      [
        "Ġ",
        "Ê"
      ],
      [
        "Ġ",
        "v"
      ],
      [
        "Ġ",
        "w"
      ],
      [
        "s",
        "t"
      ],
      [
        "É",
        "ĳ"
      ],
      [
        "n",
        "d"
      ],
      [
        "ËĮ",
        "i"
      ],
      [
        "Ì",
        "ª"
      ],
      [
        "ËĮ",
        "e"
      ],
      [
        "Ġ",
        "z"
      ],
      [
        "ËĪa",
        "Éª"
      ],
      [
        "ËĪi",
        "ÉĽ"
      ],
      [
        "Î",
        "²"
      ],
      [
        "É",
        "¹"
      ],
      [
        "Ġ",
        "ËĮa"
      ],
      [
        "Î",
        "¸"
      ],
      [
        "Ġh",
        "ÉĽ"
      ],
      [
        "Ê",
        "Ī"
      ],
      [
        "i",
        "ËĲ"
      ],
      [
        "ËĮ",
        "o"
      ],
      [
        "Ġ",
        "Éª"
      ],
      [
        "Éľ",
        "n"
      ],
      [
        "Ġ",
        "x"
      ],
      [
        "Ġt",
        "ÉĻ"
      ],
      [
        "ËĪu",
        "ËĲ"
      ],
      [
        "ËĮ",
        "ÉĻ"
      ],
      [
        "Ġj",
        "ËĪi"
      ],
      [
        "ËĮ",
        "ÉĽ"
      ],
      [
        "ĠÉ",
        "Ľ"
      ],
      [
        "Ġ",
        "ËĪa"
      ],
      [
        "ËĮa",
        "ËĲ"
      ],
      [
        "Ġl",
        "a"
      ],
      [
        "ĠÃ°",
        "e"
      ],
      [
        "ĠhÉĽ",
        "ËĲ"
      ],
      [
        "Ġ",
        "e"
      ],
      [
        "Ã",
        "§"
      ],
      [
        "ÉĻ",
        "l"
      ],
      [
        "o",
        "ËĲ"
      ],
      [
        "ËĪÉĳ",
        "u"
      ],
      [
        "Ê",
        "Ĵ"
      ],
      [
        "u",
        "ËĲ"
      ],
      [
        "ĠÉ",
        "Ĺ"
      ],
      [
        "ĠÉ",
        "ķ"
      ],
      [
        "ËĮ",
        "eËĲ"
      ],
      [
        "ĠtÉķ",
        "ËĪi"
      ],
      [
        "o",
        "s"
      ],
      [
        "ËĪÉĶ",
        "ËĲ"
      ],
      [
        "a",
        "s"
      ],
      [
        "ËĪ",
        "ÊĬ"
      ],
      [
        "Ġ",
        "i"
      ],
      [
        "ËĪa",
        "i"
      ],
      [
        "É",
        "²"
      ],
      [
        "Éª",
        "n"
      ],
      [
        "t",
        "s"
      ],
      [
        "Éľ",
        "Åĭ"
      ],
      [
        "ĠÉ",
        "Ł"
      ],
      [
        "Ġ",
        "Êĥ"
      ],
      [
        "ËĪe",
        "Éª"
      ],
      [
        "ÉĽ",
        "É¾"
      ],
      [
        "ËĪÉĽ",
        "ËĲ"
      ],
      [
        "ËĪÉĽ",
        "É¾"
      ],
      [
        "Ġ",
        "r"
      ],
      [
        "t",
        "Êĥ"
      ],
      [
        "ËĮ",
        "ÉĶ"
      ],
      [
        "Ġd",
        "ÉĻ"
      ],
      [
        "t",
        "ÉĻ"
      ],
      [
        "o",
        "u"
      ],
      [
        "ËĪy",
        "ÉĻ"
      ],
      [
        "ĠËĮ",
        "i"
      ],
      [
        "ÉĻ",
        "É¾"
      ],
      [
        "ËĪÉĻ",
        "ÊĬ"
      ],
      [
        "ËĪÊĮ",
        "É¾"
      ],
      [
        "ËĪÉ",
        "Ĵ"
      ],
      [
        "Ġt",
        "h"
      ],
      [
        "ËĪo",
        "n"
      ],
      [
        "Ê",
        "ĭ"
      ],
      [
        "ËĪÉĳ",
        "ËĲ"
      ],
      [
        "ËĪÊĮ",
        "h"
      ],
      [
        "w",
        "ËĪa"
      ],
      [
        "ËĪe",
        "i"
      ],
      [
        "l",
        "l"
      ],
      [
        "ĠÉ",
        "Ĳ"
      ],
      [
        "Éĳ",
        "ËĲ"
      ],
      [
        "a",
        "n"
      ],
      [
        "É",
        "Ł"
      ],
      [
        "ĠÊ",
        "ĭ"
      ],
      [
        "Ġk",
        "o"
      ],
      [
        "k",
        "h"
      ],
      [
        "Éª",
        "Åĭ"
      ],
      [
        "ËĪaËĲ",
        "Éª"
      ],
      [
        "Ġt",
        "Êĥ"
      ],
      [
        "ËĪaËĲ",
        "t"
      ],
      [
        "ĠËĮ",
        "e"
      ],
      [
        "ĠtÉķ",
        "h"
      ],
      [
        "ËĪu",
        "o"
      ],
      [
        "ËĪon",
        "É¡"
      ],
      [
        "É",
        "ĸ"
      ],
      [
        "a",
        "t"
      ],
      [
        "Ġk",
        "e"
      ],
      [
        "É",
        "Ĵ"
      ],
      [
        "ĠÉķ",
        "ËĪi"
      ],
      [
        "Ã",
        "¸"
      ],
      [
        "ĠÉ",
        "ĳ"
      ],
      [
        "ËĪeËĲ",
        "k"
      ],
      [
        "Å",
        "ĵ"
      ],
      [
        "r",
        "e"
      ],
      [
        "Ġ",
        "É¾"
      ],
      [
        "Ġk",
        "ÉĶ"
      ],
      [
        "ËĮ",
        "ÊĬ"
      ],
      [
        "s",
        "k"
      ],
      [
        "Ġ",
        "ÊĬ"
      ],
      [
        "Ġa",
        "nd"
      ],
      [
        "Éª",
        "Ã§"
      ],
      [
        "Ġm",
        "e"
      ],
      [
        "ËĪa",
        "É¾"
      ],
      [
        "Ġ",
        "ËĪÉª"
      ],
      [
        "n",
        "a"
      ],
      [
        "Ġ",
        "Î²"
      ],
      [
        "Ġl",
        "ËĪi"
      ],
      [
        "j",
        "aËĲ"
      ],
      [
        "l",
        "i"
      ],
      [
        "n",
        "o"
      ],
      [
        "ĠÉª",
        "n"
      ],
      [
        "Ġd",
        "ËĮi"
      ],
      [
        "ĠÉ",
        "²"
      ],
      [
        "t",
        "ËĲ"
      ],
      [
        "ÉĻ",
        "m"
      ],
      [
        "Ġl",
        "ÉĻ"
      ],
      [
        "ĠÃ°",
        "ÉĻ"
      ],
      [
        "Éª",
        "k"
      ],
      [
        "ËĪÉĽ",
        "l"
      ],
      [
        "Éľ",
        "t"
      ],
      [
        "Ġs",
        "e"
      ],
      [
        "e",
        "s"
      ],
      [
        "ËĪo",
        "u"
      ],
      [
        "ËĪa",
        "ÊĬ"
      ],
      [
        "ĠÉ",
        "Ķ"
      ],
      [
        "Éª",
        "t"
      ],
      [
        "Ġ",
        "Åĭ"
      ],
      [
        "ËĪÉĽ",
        "n"
      ],
      [
        "Ê",
        "İ"
      ],
      [
        "Ġk",
        "h"
      ],
      [
        "ËĪÉĽ",
        "nt"
      ],
      [
        "ËĪaËĲ",
        "É¾"
      ],
      [
        "Ġk",
        "i"
      ],
      [
        "m",
        "p"
      ],
      [
        "l",
        "t"
      ],
      [
        "É",
        "£"
      ],
      [
        "Ġp",
        "a"
      ],
      [
        "ËĪÉĻ",
        "ËĲ"
      ],
      [
        "Éª",
        "s"
      ],
      [
        "ĠÉ",
        "Ĵ"
      ],
      [
        "Ġl",
        "e"
      ],
      [
        "Éª",
        "Éľ"
      ],
      [
        "ËĪÉĽ",
        "t"
      ],
      [
        "Ġd",
        "e"
      ],
      [
        "ĠÉ",
        "¹"
      ],
      [
        "Ġt",
        "ËĪoËĲ"
      ],
      [
        "Ġ",
        "Êģ"
      ],
      [
        "Êĥ",
        "ÉĻn"
      ],
      [
        "ĠÊĬ",
        "nt"
      ],
      [
        "ËĪÉĶ",
        "É¾"
      ],
      [
        "ËĪa",
        "Ã°"
      ],
      [
        "Ġa",
        "Éª"
      ],
      [
        "ĠÊ",
        "Ĳ"
      ],
      [
        "Ġm",
        "ËĪa"
      ],
      [
        "r",
        "a"
      ],
      [
        "Ġk",
        "ËĪÉª"
      ],
      [
        "k",
        "t"
      ],
      [
        "ËĲ",
        "p"
      ],
      [
        "ĠÊ",
        "Ī"
      ],
      [
        "ËĪaËĲ",
        "ÊĬ"
      ],
      [
        "Ġk",
        "ËĪÊĮÉ¾"
      ],
      [
        "Ġ",
        "ËĪÊĮ"
      ],
      [
        "ĠÉĴ",
        "v"
      ],
      [
        "Ġe",
        "l"
      ],
      [
        "k",
        "s"
      ],
      [
        "Ġk",
        "w"
      ],
      [
        "ÉĻ",
        "t"
      ],
      [
        "nd",
        "o"
      ],
      [
        "e",
        "i"
      ],
      [
        "ĠËĮa",
        "ËĲp"
      ],
      [
        "s",
        "e"
      ],
      [
        "ÉĻ",
        "É¹"
      ],
      [
        "ËĪu",
        "ei"
      ],
      [
        "ÉĻ",
        "s"
      ],
      [
        "Ġk",
        "ËĮo"
      ],
      [
        "ĠÊ",
        "Ĥ"
      ],
      [
        "ĠËĮ",
        "ÊĬ"
      ],
      [
        "Ġ",
        "c"
      ],
      [
        "ĠÉĽ",
        "n"
      ],
      [
        "ËĪa",
        "nt"
      ],
      [
        "Î¸",
        "j"
      ],
      [
        "ËĮo",
        "ËĲ"
      ],
      [
        "Ġ",
        "ËĪaËĲ"
      ],
      [
        "Ġp",
        "É¾"
      ],
      [
        "s",
        "i"
      ],
      [
        "Ġ",
        "ËĪe"
      ],
      [
        "Ġj",
        "uËĲ"
      ],
      [
        "Ġk",
        "ËĮe"
      ],
      [
        "ËĮ",
        "Éª"
      ],
      [
        "ÉĶ",
        "n"
      ],
      [
        "Ġs",
        "ËĪÊĮ"
      ],
      [
        "Ġ",
        "ËĪu"
      ],
      [
        "n",
        "i"
      ],
      [
        "Ġs",
        "t"
      ],
      [
        "Ġd",
        "iËĲ"
      ],
      [
        "Ġk",
        "eËĲ"
      ],
      [
        "ĠjËĪi",
        "ou"
      ],
      [
        "ËĪai",
        "Éľ"
      ],
      [
        "Ġd",
        "ÊĴ"
      ],
      [
        "Ġ",
        "ËĪÉĶ"
      ],
      [
        "v",
        "a"
      ],
      [
        "ËĲ",
        "É¾"
      ],
      [
        "ËĪ",
        "Ã¸"
      ],
      [
        "ËĮÉĻ",
        "ÊĬ"
      ],
      [
        "Ġp",
        "ËĪu"
      ],
      [
        "Ġs",
        "u"
      ],
      [
        "Ġm",
        "a"
      ],
      [
        "Ġ",
        "ÉĻ"
      ],
      [
        "d",
        "ÊĴ"
      ],
      [
        "Ġp",
        "Ê°"
      ],
      [
        "l",
        "e"
      ],
      [
        "i",
        "n"
      ],
      [
        "ĠtÉķh",
        "ËĪi"
      ],
      [
        "Ġw",
        "ËĪo"
      ],
      [
        "r",
        "o"
      ],
      [
        "ËĮ",
        "y"
      ],
      [
        "É¾",
        "a"
      ],
      [
        "Ġs",
        "ËĪi"
      ],
      [
        "Ã°",
        "ÉĻ"
      ],
      [
        "Ġs",
        "eËĲ"
      ],
      [
        "l",
        "a"
      ],
      [
        "ĠÊ",
        "Ĵ"
      ],
      [
        "m",
        "b"
      ],
      [
        "Ġh",
        "ËĪoËĲ"
      ],
      [
        "Ġb",
        "Ê°"
      ],
      [
        "ĠÉĽ",
        "É¾"
      ],
      [
        "ĠÃ°",
        "at"
      ],
      [
        "s",
        "p"
      ],
      [
        "ÉĶ",
        "É¾"
      ],
      [
        "e",
        "n"
      ],
      [
        "Ġs",
        "ÉĻ"
      ],
      [
        "ËĪÉĶ",
        "Éľ"
      ],
      [
        "Ġl",
        "ËĮa"
      ],
      [
        "ĠËĮ",
        "ÉĽ"
      ],
      [
        "Ġ",
        "ËĪy"
      ],
      [
        "É¡",
        "aËĲ"
      ],
      [
        "Ġd",
        "ÉĽÉ¾"
      ],
      [
        "ËĪÉĽ",
        "Êģ"
      ],
      [
        "Éľ",
        "kh"
      ],
      [
        "ËĪi",
        "ÉĻ"
      ],
      [
        "ËĪa",
        "n"
      ],
      [
        "Ġm",
        "ËĪo"
      ],
      [
        "ËĪa",
        "Î²"
      ],
      [
        "Ġa",
        "l"
      ],
      [
        "Ġ",
        "ËĪeËĲ"
      ],
      [
        "Ġ",
        "Î¸"
      ],
      [
        "Ġn",
        "ËĪi"
      ],
      [
        "p",
        "Ê°"
      ],
      [
        "ll",
        "a"
      ],
      [
        "Ġp",
        "l"
      ],
      [
        "ËĪ",
        "Åĵ"
      ],
      [
        "j",
        "ËĪÉĳu"
      ],
      [
        "Ġa",
        "v"
      ],
      [
        "Ġm",
        "ËĪi"
      ],
      [
        "Ġf",
        "ËĪa"
      ],
      [
        "ËĪÉ",
        "ľ"
      ],
      [
        "m",
        "e"
      ],
      [
        "ËĮÉĻ",
        "h"
      ],
      [
        "ËĪu",
        "ÉĻ"
      ],
      [
        "i",
        "t"
      ],
      [
        "j",
        "ËĪe"
      ],
      [
        "Ġ",
        "o"
      ],
      [
        "ËĪÉľ",
        "ËĲ"
      ],
      [
        "ĠtÉķËĪi",
        "ou"
      ],
      [
        "ÉĶ",
        "ËĲ"
      ],
      [
        "Ġn",
        "ÉĻ"
      ],
      [
        "ËĪÉĻ",
        "Éľn"
      ],
      [
        "Ġm",
        "ÉĻ"
      ],
      [
        "Ġd",
        "eËĲ"
      ],
      [
        "m",
        "o"
      ],
      [
        "s",
        "a"
      ],
      [
        "j",
        "ËĪÉĶ"
      ],
      [
        "ËĪa",
        "l"
      ],
      [
        "ĠtÉķ",
        "ËĪiÉĽ"
      ],
      [
        "ĠÉ¡",
        "ÉĻ"
      ],
      [
        "Ã°",
        "a"
      ],
      [
        "ĠÉª",
        "z"
      ],
      [
        "Ġs",
        "a"
      ],
      [
        "r",
        "i"
      ],
      [
        "ĠËĮi",
        "l"
      ],
      [
        "ËĮ",
        "u"
      ],
      [
        "Ġk",
        "aËĲ"
      ],
      [
        "ĠÉĻ",
        "ËĲ"
      ],
      [
        "ĠÉ",
        "ĸ"
      ],
      [
        "Ġk",
        "a"
      ],
      [
        "ËĪÊĮh",
        "i"
      ],
      [
        "Ġj",
        "eËĲ"
      ],
      [
        "Ġt",
        "Ê°"
      ],
      [
        "n",
        "e"
      ],
      [
        "k",
        "ËĲ"
      ],
      [
        "Ġts",
        "ËĪai"
      ],
      [
        "Ġ",
        "ËĪeËĲk"
      ],
      [
        "n",
        "k"
      ],
      [
        "t",
        "i"
      ],
      [
        "ËĪa",
        "Éľn"
      ],
      [
        "Ġk",
        "ËĲ"
      ],
      [
        "É¡",
        "ÉĻn"
      ],
      [
        "ËĪi",
        "a"
      ],
      [
        "ĠÉĶ",
        "ËĲÉ¾"
      ],
      [
        "Ê",
        "ı"
      ],
      [
        "ĠËĮ",
        "ÊĮ"
      ],
      [
        "Ġz",
        "ËĪaËĲ"
      ],
      [
        "Ġl",
        "os"
      ],
      [
        "ÉĽ",
        "s"
      ],
      [
        "ËĪÉĶ",
        "n"
      ],
      [
        "ÉĽ",
        "nt"
      ],
      [
        "ÉĽ",
        "n"
      ],
      [
        "ĠÉŁ",
        "ËĪoËĲ"
      ],
      [
        "Ã§",
        "t"
      ],
      [
        "Ġd",
        "as"
      ],
      [
        "Ġx",
        "ËĮo"
      ],
      [
        "ËĪu",
        "Éľ"
      ],
      [
        "ËĪa",
        "s"
      ],
      [
        "Ġb",
        "ËĪÊĮ"
      ],
      [
        "ËĪiÉĽ",
        "Éľn"
      ],
      [
        "É",
        "Ĳ"
      ],
      [
        "Ġts",
        "uËĲ"
      ],
      [
        "Ġp",
        "ËĮÉĽ"
      ],
      [
        "Ġn",
        "ËĪÉĶ"
      ],
      [
        "ÊĬ",
        "t"
      ],
      [
        "m",
        "a"
      ],
      [
        "Ġn",
        "ËĪo"
      ],
      [
        "Ġl",
        "ËĪÉª"
      ],
      [
        "ËĪÉĽ",
        "s"
      ],
      [
        "Éª",
        "l"
      ],
      [
        "ĠÉķ",
        "ËĪiÉĽ"
      ],
      [
        "Ġ",
        "ËĪÊĬ"
      ],
      [
        "ÉĴ",
        "t"
      ],
      [
        "t",
        "o"
      ],
      [
        "Ġ",
        "ËĪo"
      ],
      [
        "ËĮo",
        "n"
      ],
      [
        "Ġk",
        "wËĪa"
      ],
      [
        "ĠÉª",
        "t"
      ],
      [
        "Ġh",
        "oËĲ"
      ],
      [
        "ËĪiËĲ",
        "k"
      ],
      [
        "ĠËĮaËĲp",
        "k"
      ],
      [
        "ËĪaÉª",
        "n"
      ],
      [
        "Ã",
        "¦"
      ],
      [
        "ÉĻn",
        "t"
      ],
      [
        "t",
        "a"
      ],
      [
        "l",
        "o"
      ],
      [
        "Ġn",
        "ËĪÉĳ"
      ],
      [
        "Ġl",
        "ËĪa"
      ],
      [
        "ËĪi",
        "Éľ"
      ],
      [
        "Ġw",
        "ËĪei"
      ],
      [
        "ÉĽ",
        "Êģ"
      ],
      [
        "Ġt",
        "ËĪa"
      ],
      [
        "ĠÉ¾",
        "ËĮÉĻh"
      ],
      [
        "ĠÉķËĪi",
        "Éĳ"
      ],
      [
        "ËĮi",
        "ËĲ"
      ],
      [
        "ËĮÉĽ",
        "l"
      ],
      [
        "ĠtÉĻ",
        "Éľ"
      ],
      [
        "Ġk",
        "ËĪuo"
      ],
      [
        "Ġt",
        "ËĪu"
      ],
      [
        "j",
        "ËĪÉĽ"
      ],
      [
        "ĠËĮi",
        "n"
      ],
      [
        "É¾",
        "e"
      ],
      [
        "Ġk",
        "oËĲ"
      ],
      [
        "Ġk",
        "ËĪa"
      ],
      [
        "É¾",
        "i"
      ],
      [
        "ĠtÉķËĪi",
        "Éĳ"
      ],
      [
        "l",
        "ÉĻ"
      ],
      [
        "Ġk",
        "ÉĻ"
      ],
      [
        "Ġt",
        "ËĪi"
      ],
      [
        "ĠÅĭ",
        "ËĪyÉĻ"
      ],
      [
        "Ġts",
        "h"
      ],
      [
        "e",
        "r"
      ],
      [
        "a",
        "v"
      ],
      [
        "ĠkÉĶ",
        "n"
      ],
      [
        "ËĪÉĻ",
        "ÉľÅĭ"
      ],
      [
        "Ã°",
        "o"
      ],
      [
        "ËĪaËĲ",
        "n"
      ],
      [
        "ĠbÊ°",
        "ËĪi"
      ],
      [
        "ĠkËĲ",
        "jaËĲ"
      ],
      [
        "ÉĻ",
        "z"
      ],
      [
        "Ġp",
        "Êģ"
      ],
      [
        "Ġd",
        "ËĪÉª"
      ],
      [
        "Ġz",
        "iËĲ"
      ],
      [
        "É¡",
        "eËĲ"
      ],
      [
        "Ġt",
        "ËĪÉĻ"
      ],
      [
        "Éª",
        "z"
      ],
      [
        "Ġn",
        "ËĮon"
      ],
      [
        "t",
        "aËĲ"
      ],
      [
        "b",
        "l"
      ],
      [
        "t",
        "e"
      ],
      [
        "n",
        "ËĮeËĲ"
      ],
      [
        "ËĪÉª",
        "l"
      ],
      [
        "s",
        "o"
      ],
      [
        "k",
        "o"
      ],
      [
        "u",
        "Êģ"
      ],
      [
        "ĠÉ",
        "£"
      ],
      [
        "Ġpa",
        "Êģ"
      ],
      [
        "Ġ",
        "ËĪÉĽ"
      ],
      [
        "j",
        "ËĪuËĲ"
      ],
      [
        "ËĮ",
        "ÊĮ"
      ],
      [
        "y",
        "n"
      ],
      [
        "ËĪiËĲ",
        "n"
      ],
      [
        "Ġl",
        "ËĪaÉª"
      ],
      [
        "ËĪÉª",
        "Åĭ"
      ],
      [
        "ĠtÉķh",
        "ËĪy"
      ],
      [
        "Ġn",
        "ËĪÊĮhi"
      ],
      [
        "Ġd",
        "ËĮe"
      ],
      [
        "Ġj",
        "ËĪÉĳu"
      ],
      [
        "Ġt",
        "ËĪÉĳu"
      ],
      [
        "Ġh",
        "ËĪo"
      ],
      [
        "Éª",
        "d"
      ],
      [
        "Ġth",
        "ËĪÉĳ"
      ],
      [
        "m",
        "ËĪe"
      ],
      [
        "Ġ",
        "ËĪÉĻ"
      ],
      [
        "j",
        "a"
      ],
      [
        "Ġp",
        "h"
      ],
      [
        "ÉĽ",
        "t"
      ],
      [
        "Ġk",
        "ËĪÊĮ"
      ],
      [
        "t",
        "ÉĻn"
      ],
      [
        "m",
        "ËĪÉĳ"
      ],
      [
        "w",
        "ËĪe"
      ],
      [
        "ĠËĮa",
        "Éªn"
      ],
      [
        "ĠÃ°",
        "Éªs"
      ],
      [
        "É¡",
        "ÉĻ"
      ],
      [
        "Ġn",
        "ËĪaËĲ"
      ],
      [
        "Ġb",
        "ËĪaËĲ"
      ],
      [
        "Ġa",
        "Î¸"
      ],
      [
        "Ġm",
        "ËĮa"
      ],
      [
        "ËĪÊĮh",
        "a"
      ],
      [
        "Ġd",
        "ËĮa"
      ],
      [
        "ËĪ",
        "Êı"
      ],
      [
        "ĠÉ²",
        "ËĮy"
      ],
      [
        "Ġp",
        "ËĪa"
      ],
      [
        "ËĪaÃ°",
        "o"
      ],
      [
        "d",
        "i"
      ],
      [
        "b",
        "Éľ"
      ],
      [
        "É",
        "³"
      ],
      [
        "Ġw",
        "iËĲ"
      ],
      [
        "Ġn",
        "ËĪÉª"
      ],
      [
        "ĠÉ¡",
        "ËĪÉĶÉľ"
      ],
      [
        "tËĲ",
        "o"
      ],
      [
        "ËĮÉĻ",
        "m"
      ],
      [
        "ËĪaËĲ",
        "r"
      ],
      [
        "Ġm",
        "ÉĽ"
      ],
      [
        "ËĪeËĲ",
        "É¡aËĲ"
      ],
      [
        "Ġs",
        "ËĮi"
      ],
      [
        "Ġl",
        "ËĮaËĲ"
      ],
      [
        "n",
        "ËĮaËĲ"
      ],
      [
        "Ġs",
        "p"
      ],
      [
        "t",
        "Êģ"
      ],
      [
        "ĠÊ",
        "İ"
      ],
      [
        "ËĮ",
        "ÉĳËĲ"
      ],
      [
        "Ġk",
        "l"
      ],
      [
        "k",
        "Ê°"
      ],
      [
        "i",
        "l"
      ],
      [
        "ĠÊĥ",
        "t"
      ],
      [
        "ĠËĮÊĬ",
        "n"
      ],
      [
        "a",
        "l"
      ],
      [
        "Ġs",
        "ËĪÉĽ"
      ],
      [
        "Ġm",
        "ËĪaËĲ"
      ],
      [
        "Ġ",
        "Åĵ"
      ],
      [
        "ĠÉ¡",
        "ËĪÊĮ"
      ],
      [
        "ĠpËĮÉĽ",
        "r"
      ],
      [
        "É¾",
        "ËĪa"
      ],
      [
        "ËĲ",
        "ÊĪ"
      ],
      [
        "ËĪaÎ²",
        "a"
      ],
      [
        "Ġw",
        "ËĪÉĴ"
      ],
      [
        "Ġx",
        "ËĪuei"
      ],
      [
        "Ġkh",
        "ËĪo"
      ],
      [
        "Ġla",
        "s"
      ],
      [
        "ĠÉĹ",
        "ËĪo"
      ],
      [
        "Ġf",
        "ÉĽÉ¾"
      ],
      [
        "Ġj",
        "ËĪiÉĽ"
      ],
      [
        "Ġt",
        "ËĪe"
      ],
      [
        "Ġk",
        "ËĮÉĶ"
      ],
      [
        "ĠdeËĲ",
        "n"
      ],
      [
        "Ġm",
        "o"
      ],
      [
        "Ġp",
        "ËĪi"
      ],
      [
        "Ġt",
        "ËĪÉĳ"
      ],
      [
        "ËĪÉĽ",
        "st"
      ],
      [
        "w",
        "ËĪÉĳ"
      ],
      [
        "ËĪaÉª",
        "t"
      ],
      [
        "ÉĻ",
        "ÊĬ"
      ],
      [
        "Ġ",
        "ËĪi"
      ],
      [
        "Éª",
        "j"
      ],
      [
        "a",
        "Éª"
      ],
      [
        "ËĪaËĲ",
        "Éľ"
      ],
      [
        "ĠËĪÉª",
        "s"
      ],
      [
        "Ġp",
        "ÉĶÉ¾"
      ],
      [
        "Ã¦",
        "Éľn"
      ],
      [
        "k",
        "a"
      ],
      [
        "Åĭ",
        "É¡"
      ],
      [
        "b",
        "ÉĻn"
      ],
      [
        "ÊĬ",
        "f"
      ],
      [
        "Ġp",
        "É¹"
      ],
      [
        "Ġl",
        "ËĮe"
      ],
      [
        "ËĪiËĲ",
        "d"
      ],
      [
        "ËĪaËĲ",
        "re"
      ],
      [
        "Ġm",
        "ËĪÊĮ"
      ],
      [
        "ÉĻ",
        "r"
      ],
      [
        "Ġd",
        "Éĳ"
      ],
      [
        "ËĪaËĲt",
        "o"
      ],
      [
        "Ġp",
        "ËĪeËĲ"
      ],
      [
        "Ġd",
        "ËĪoËĲ"
      ],
      [
        "Ġs",
        "ËĮÊĬ"
      ],
      [
        "Ġh",
        "ËĪi"
      ],
      [
        "Ġs",
        "ËĪa"
      ],
      [
        "ËĪeËĲ",
        "n"
      ],
      [
        "d",
        "ÉĻ"
      ],
      [
        "Ġp",
        "j"
      ],
      [
        "ËĪÅĵ",
        "Êģ"
      ],
      [
        "l",
        "ÉªÃ§"
      ],
      [
        "ÉĴ",
        "n"
      ],
      [
        "ĠËĪÉĻ",
        "r"
      ],
      [
        "t",
        "ËĪe"
      ],
      [
        "Ġi",
        "l"
      ],
      [
        "ËĪaËĲ",
        "l"
      ],
      [
        "Ġs",
        "ËĮÉĻÊĬ"
      ],
      [
        "s",
        "ÊĪ"
      ],
      [
        "Ġd",
        "ËĪuËĲ"
      ],
      [
        "h",
        "ËĪÉĳ"
      ],
      [
        "Ġx",
        "ËĪou"
      ],
      [
        "Ġl",
        "ËĪaiÉľ"
      ],
      [
        "w",
        "ËĪo"
      ],
      [
        "ËĪÉĽnt",
        "e"
      ],
      [
        "Ġs",
        "y"
      ],
      [
        "Ġz",
        "ÉªÃ§"
      ],
      [
        "ĠÉ¡",
        "ËĪu"
      ],
      [
        "ĠÉķ",
        "ËĪy"
      ],
      [
        "ËĪÉĶËĲ",
        "l"
      ],
      [
        "ÉĶ",
        "l"
      ],
      [
        "Ġt",
        "ËĪo"
      ],
      [
        "ĠÊĭ",
        "oËĲ"
      ],
      [
        "Ġ",
        "iËĲ"
      ],
      [
        "wËĪa",
        "Ã°a"
      ],
      [
        "ËĪa",
        "ndo"
      ],
      [
        "ĠaÎ¸",
        "ÉĽnt"
      ],
      [
        "ĠaÎ¸ÉĽnt",
        "wËĪaÃ°a"
      ],
      [
        "Ġt",
        "ËĪiÉĽ"
      ],
      [
        "ËĪei",
        "Éľ"
      ],
      [
        "Ġp",
        "ËĮa"
      ],
      [
        "Ġn",
        "ËĪaÉª"
      ],
      [
        "w",
        "a"
      ],
      [
        "Ġf",
        "r"
      ],
      [
        "ĠÊĲ",
        "ËĪÉĻÉľn"
      ],
      [
        "ËĪu",
        "a"
      ],
      [
        "m",
        "i"
      ],
      [
        "Ġm",
        "ËĪÉĽ"
      ],
      [
        "ËĪeËĲk",
        "Ê°"
      ],
      [
        "c",
        "Ê°"
      ],
      [
        "Ġw",
        "ËĪÉĳ"
      ],
      [
        "st",
        "a"
      ],
      [
        "Ġt",
        "u"
      ],
      [
        "Ġs",
        "k"
      ],
      [
        "ËĪÉĶ",
        "l"
      ],
      [
        "ËĪeËĲ",
        "ÊĪ"
      ],
      [
        "Ġl",
        "ËĪaËĲÉª"
      ],
      [
        "Ġl",
        "ËĪaËĲ"
      ],
      [
        "ËĪÉĽËĲ",
        "s"
      ],
      [
        "ËĪÉĽÉ¾",
        "a"
      ],
      [
        "ËĪÉĻ",
        "Éľt"
      ],
      [
        "Ġ",
        "yn"
      ],
      [
        "d",
        "ÉĻn"
      ],
      [
        "Ġd",
        "i"
      ],
      [
        "ËĪiËĲ",
        "s"
      ],
      [
        "ĠÃ°e",
        "l"
      ],
      [
        "ËĪÊĮ",
        "r"
      ],
      [
        "Ġh",
        "ËĪaËĲ"
      ],
      [
        "Ġb",
        "ÉĻ"
      ],
      [
        "Ġj",
        "ËĪuËĲ"
      ],
      [
        "ll",
        "e"
      ],
      [
        "st",
        "o"
      ],
      [
        "ËĪÉª",
        "t"
      ],
      [
        "ËĪoËĲ",
        "É¾"
      ],
      [
        "b",
        "Ê°"
      ],
      [
        "m",
        "ÉĻn"
      ],
      [
        "ËĮu",
        "ÉĻ"
      ],
      [
        "ËĮÉĻ",
        "É¾"
      ],
      [
        "ËĪÊĮ",
        "n"
      ],
      [
        "ĠlËĪaÉª",
        "k"
      ],
      [
        "Ġb",
        "ËĪa"
      ],
      [
        "Éª",
        "Ã°"
      ],
      [
        "Ġl",
        "o"
      ],
      [
        "z",
        "i"
      ],
      [
        "ËĪÊĮ",
        "st"
      ],
      [
        "m",
        "ËĪi"
      ],
      [
        "ÉĶ",
        "Êģ"
      ],
      [
        "ĠnËĪÉª",
        "Ã§t"
      ],
      [
        "Ġt",
        "É¾"
      ],
      [
        "Ġd",
        "ËĪeËĲkÊ°"
      ],
      [
        "Ġs",
        "ËĮe"
      ],
      [
        "Ġn",
        "ËĪÉĻÊĬ"
      ],
      [
        "Ġ",
        "u"
      ],
      [
        "Ġs",
        "i"
      ],
      [
        "ĠÉª",
        "Ã§"
      ],
      [
        "Ġp",
        "r"
      ],
      [
        "ĠtÉķ",
        "ËĪy"
      ],
      [
        "Ġm",
        "ËĪu"
      ],
      [
        "z",
        "a"
      ],
      [
        "Ġt",
        "Êģ"
      ],
      [
        "Ġw",
        "ÉªÃ°"
      ],
      [
        "t",
        "ËĪÉĽ"
      ],
      [
        "Ġp",
        "ËĪÊĮÉ¾"
      ],
      [
        "Ġk",
        "ËĪÉĶ"
      ],
      [
        "ËĪoËĲ",
        "r"
      ],
      [
        "Ġh",
        "ËĮa"
      ],
      [
        "Ġk",
        "ËĪonÉ¡"
      ],
      [
        "Ġp",
        "uÊģ"
      ],
      [
        "Ġd",
        "y"
      ],
      [
        "ËĪÉª",
        "n"
      ],
      [
        "nt",
        "e"
      ],
      [
        "Ġk",
        "ËĮa"
      ],
      [
        "ËĪÉĻ",
        "Éª"
      ],
      [
        "Ġm",
        "i"
      ],
      [
        "ĠÉ¡",
        "ËĮuÉĻ"
      ],
      [
        "ĠÊ",
        "²"
      ],
      [
        "Ġf",
        "ËĪÉĳ"
      ],
      [
        "Ġv",
        "ÉĳËĲ"
      ],
      [
        "ĠËĮa",
        "ÊĬ"
      ],
      [
        "ËĮ",
        "uËĲ"
      ],
      [
        "ĠËĪu",
        "n"
      ],
      [
        "Ġj",
        "ËĪÊĮha"
      ],
      [
        "j",
        "uËĲ"
      ],
      [
        "Ġm",
        "Éªt"
      ],
      [
        "Ġl",
        "ËĪÉĽ"
      ],
      [
        "ËĪeËĲ",
        "Êĥ"
      ],
      [
        "Ġf",
        "ÉĶËĲ"
      ],
      [
        "m",
        "ÉĻ"
      ],
      [
        "É¾",
        "t"
      ],
      [
        "ĠkËĮo",
        "n"
      ],
      [
        "Ġl",
        "ËĪÉĶ"
      ],
      [
        "Ġx",
        "ËĪÉĳu"
      ],
      [
        "p",
        "l"
      ],
      [
        "Ġd",
        "ËĪi"
      ],
      [
        "Ġl",
        "ËĪoËĲ"
      ],
      [
        "s",
        "ÉĻ"
      ],
      [
        "ËĪaËĲ",
        "va"
      ],
      [
        "Ġl",
        "ËĪu"
      ],
      [
        "ĠÉ¡",
        "ËĮÉĻÊĬ"
      ],
      [
        "Ġh",
        "av"
      ],
      [
        "ĠËĮaËĲpk",
        "ËĮoËĲ"
      ],
      [
        "É¾",
        "ËĪi"
      ],
      [
        "Ġf",
        "ËĪÉĻ"
      ],
      [
        "Ġh",
        "ËĮÉĻm"
      ],
      [
        "ËĪonÉ¡",
        "Éľ"
      ],
      [
        "j",
        "o"
      ],
      [
        "Ġs",
        "ÉĶ"
      ],
      [
        "ËĪaËĲ",
        "d"
      ],
      [
        "w",
        "ËĪiÉĻ"
      ],
      [
        "ËĪa",
        "nd"
      ],
      [
        "ËĮa",
        "Éªn"
      ],
      [
        "t",
        "É¾"
      ],
      [
        "ĠËĮ",
        "Éª"
      ],
      [
        "ĠËĪu",
        "na"
      ],
      [
        "Ġx",
        "wËĪÉĳ"
      ],
      [
        "Ġj",
        "ÉĶËĲ"
      ],
      [
        "Êģ",
        "ËĪi"
      ],
      [
        "ĠkËĪuo",
        "Éľ"
      ],
      [
        "Ġa",
        "Î²"
      ],
      [
        "ĠÉ¡",
        "ËĪaËĲ"
      ],
      [
        "an",
        "o"
      ],
      [
        "t",
        "ÉĻl"
      ],
      [
        "Ġr",
        "ËĮe"
      ],
      [
        "ËĮÊĮ",
        "t"
      ],
      [
        "ĠjËĪi",
        "Éĳ"
      ],
      [
        "ĠÉ¾ËĮÉĻh",
        "aËĲ"
      ],
      [
        "Ġm",
        "ËĪe"
      ],
      [
        "ĠËĪy",
        "Ã¦Éľn"
      ],
      [
        "Ġf",
        "ËĪu"
      ],
      [
        "Ġb",
        "l"
      ],
      [
        "n",
        "ËĪi"
      ],
      [
        "s",
        "ÉĻn"
      ],
      [
        "Ġa",
        "Éªn"
      ],
      [
        "ËĪi",
        "ÊĬ"
      ],
      [
        "ĠÃ°e",
        "Éª"
      ],
      [
        "ĠÉª",
        "ts"
      ],
      [
        "Ġ",
        "("
      ],
      [
        "ËĪy",
        "ËĲ"
      ],
      [
        "ÉĻ",
        "d"
      ],
      [
        "ĠËĮ",
        "o"
      ],
      [
        "ĠÉĽ",
        "s"
      ],
      [
        "Ġv",
        "iËĲ"
      ],
      [
        "ËĲ",
        "É¡eËĲ"
      ],
      [
        "k",
        "ËĪe"
      ],
      [
        "ĠËĪa",
        "l"
      ],
      [
        "ÉĽ",
        "l"
      ],
      [
        "Ġ",
        "ÊĮ"
      ],
      [
        "ËĲ",
        "o"
      ],
      [
        "Ġk",
        "ËĪo"
      ],
      [
        "ĠÊĪ",
        "ËĪuËĲ"
      ],
      [
        "Ġs",
        "ËĪÉª"
      ],
      [
        "ËĪeËĲ",
        "É¾"
      ],
      [
        "Éľ",
        "m"
      ],
      [
        "ËĮ",
        "ÉĻn"
      ],
      [
        "ËĪaËĲ",
        "i"
      ],
      [
        "ËĪoËĲ",
        "l"
      ],
      [
        "Éª",
        "ËĮeËĲ"
      ],
      [
        "ĠÊ²",
        "ËĪy"
      ],
      [
        "Ġk",
        "ËĪÉĶËĲ"
      ],
      [
        "s",
        "ËĪi"
      ],
      [
        "Ġl",
        "ËĪe"
      ],
      [
        "ËĮ",
        "ÉĴt"
      ],
      [
        "ËĪiËĲ",
        "p"
      ],
      [
        "a",
        "Êģ"
      ],
      [
        "ĠÎ¸",
        "ËĪÉªÅĭ"
      ],
      [
        "ËĪÉĻËĲ",
        "Éª"
      ],
      [
        "ËĪÊĮ",
        "l"
      ],
      [
        "ĠhËĪoËĲ",
        "taËĲ"
      ],
      [
        "ËĪo",
        "Éª"
      ],
      [
        "nt",
        "o"
      ],
      [
        "z",
        "h"
      ],
      [
        "ĠdeËĲ",
        "m"
      ],
      [
        "ĠkÉĶ",
        "m"
      ],
      [
        "Ê°",
        "ËĪiËĲk"
      ],
      [
        "ĠdÊĴ",
        "ËĪÊĮst"
      ],
      [
        "p",
        "É¾"
      ],
      [
        "Ġl",
        "y"
      ],
      [
        "h",
        "ËĪu"
      ],
      [
        "ËĪÉĶ",
        "Ã¸"
      ],
      [
        "ËĪaËĲ",
        "s"
      ],
      [
        "ĠËĪa",
        "n"
      ],
      [
        "Ġ",
        "ËĪÉĴ"
      ],
      [
        "Ġk",
        "an"
      ],
      [
        "Ġts",
        "ËĪuo"
      ],
      [
        "ËĪeËĲ",
        "va"
      ],
      [
        "ĠÉ¡",
        "É¾"
      ],
      [
        "Ġp",
        "o"
      ],
      [
        "ĠtÊĥ",
        "ËĪÉĶ"
      ],
      [
        "Êİ",
        "a"
      ],
      [
        "Ġm",
        "ËĮi"
      ],
      [
        "Êĥ",
        "t"
      ],
      [
        "t",
        "ËĪi"
      ],
      [
        "Ġh",
        "ËĪÊĮ"
      ],
      [
        "tÊĥ",
        "e"
      ],
      [
        "Ġf",
        "ÉĶn"
      ],
      [
        "v",
        "e"
      ],
      [
        "Ġn",
        "ËĮe"
      ],
      [
        "ËĪÉĶ",
        "Êģ"
      ],
      [
        "i",
        "z"
      ],
      [
        "Ġs",
        "ËĪuo"
      ],
      [
        "ËĪÉĽËĲ",
        "r"
      ],
      [
        "wËĪa",
        "Êģ"
      ],
      [
        "ËĪaÃ°",
        "a"
      ],
      [
        "Åĭ",
        "k"
      ],
      [
        "p",
        "o"
      ],
      [
        "Ġk",
        "ËĪi"
      ],
      [
        "ËĪa",
        "d"
      ],
      [
        "Ġv",
        "ËĪi"
      ],
      [
        "t",
        "Éķ"
      ],
      [
        "Ġk",
        "ËĪÉĻ"
      ],
      [
        "Ġw",
        "ËĪu"
      ],
      [
        "ÉĴ",
        "z"
      ],
      [
        "ĠvÉĳËĲ",
        "É¾"
      ],
      [
        "Êģ",
        "ËĪÉĽ"
      ],
      [
        "Ġk",
        "ËĪaËĲ"
      ],
      [
        "k",
        "e"
      ],
      [
        "n",
        "ÉĻ"
      ],
      [
        "ËĪÊĮ",
        "b"
      ],
      [
        "ËĪuËĲ",
        "É¾"
      ],
      [
        "ËĮÉĻ",
        "ËĲ"
      ],
      [
        "ĠÊĪ",
        "Ê°ËĪiËĲk"
      ],
      [
        "Ġk",
        "ËĪu"
      ],
      [
        "Ġb",
        "ËĮÊĮt"
      ],
      [
        "Ġa",
        "t"
      ],
      [
        "Ġf",
        "É¹"
      ],
      [
        "ËĪa",
        "x"
      ],
      [
        "Ġz",
        "oËĲ"
      ],
      [
        "Ġt",
        "ËĪaËĲ"
      ],
      [
        "ĠÃ°",
        "ËĮe"
      ],
      [
        "n",
        "eËĲ"
      ],
      [
        "ĠÉĳ",
        "ËĲ"
      ],
      [
        "Ġa",
        "ÊĬf"
      ],
      [
        "a",
        "m"
      ],
      [
        "ÊĬ",
        "Åĭ"
      ],
      [
        "ĠÉĶ",
        "ËĲ"
      ],
      [
        "ĠÉķËĪi",
        "ÉľÅĭ"
      ],
      [
        "Ġ",
        "ËĪÉĶËĲl"
      ],
      [
        "Éª",
        "m"
      ],
      [
        "j",
        "ËĪo"
      ],
      [
        "ËĪiËĲ",
        "ÉŁ"
      ],
      [
        "Ġkw",
        "ËĮÉĽ"
      ],
      [
        "ĠmËĪa",
        "s"
      ],
      [
        "ÉĻ",
        "h"
      ],
      [
        "ĠËĪa",
        "ÊĬ"
      ],
      [
        "ËĪÉĶ",
        "Éª"
      ],
      [
        "É¡",
        "ÉĻÉ¾"
      ],
      [
        "r",
        "ÉĻn"
      ],
      [
        "ËĪÉª",
        "k"
      ],
      [
        "s",
        "se"
      ],
      [
        "Ġp",
        "ËĪÉĳ"
      ],
      [
        "ĠÉĹ",
        "ËĮe"
      ],
      [
        "ĠÉĹ",
        "ËĪi"
      ],
      [
        "Ġa",
        "z"
      ],
      [
        "ĠÉ¡ËĪÊĮ",
        "jaËĲ"
      ],
      [
        "z",
        "e"
      ],
      [
        "ĠÉĹ",
        "ËĮaËĲ"
      ],
      [
        "Ġf",
        "ËĪi"
      ],
      [
        "ĠËĮ",
        "ÉĴn"
      ],
      [
        "Ġx",
        "ËĪo"
      ],
      [
        "ĠËĮÊĬ",
        "na"
      ],
      [
        "ĠtÊ°",
        "aËĲ"
      ],
      [
        "Ġs",
        "Éĳ"
      ],
      [
        "ËĪeÉª",
        "ÊĥÉĻn"
      ],
      [
        "ĠtÉķËĪi",
        "Éľ"
      ],
      [
        "ĠÉŁ",
        "aËĲ"
      ],
      [
        "p",
        "ËĲ"
      ],
      [
        "Ġpl",
        "y"
      ],
      [
        "Î¸",
        "ËĪi"
      ],
      [
        "ËĲ",
        "Éĸ"
      ],
      [
        "Ġt",
        "ËĪuei"
      ],
      [
        "Ġl",
        "ËĪÉĻ"
      ],
      [
        "Ġd",
        "ÉĳËĲ"
      ],
      [
        "f",
        "t"
      ],
      [
        "ËĪa",
        "m"
      ],
      [
        "ĠsËĪÊĮ",
        "kt"
      ],
      [
        "Ġt",
        "ËĪou"
      ],
      [
        "Ġp",
        "ËĪiÉĽ"
      ],
      [
        "ĠËĪa",
        "i"
      ],
      [
        "ĠwËĪÉĴ",
        "n"
      ],
      [
        "Ġz",
        "ËĮaÉªn"
      ],
      [
        "Ġe",
        "st"
      ],
      [
        "Ġm",
        "ÉĶ"
      ],
      [
        "ĠtÉķ",
        "jËĪÉĳu"
      ],
      [
        "Éľ",
        "p"
      ],
      [
        "ËĪÊĮ",
        "z"
      ],
      [
        "b",
        "i"
      ],
      [
        "ËĪÉĽËĲs",
        "eËĲ"
      ],
      [
        "Ġl",
        "ËĪy"
      ],
      [
        "Ġm",
        "ËĮe"
      ],
      [
        "Ġd",
        "ËĮÉĽl"
      ],
      [
        "ËĪiËĲ",
        "l"
      ],
      [
        "ĠkËĮo",
        "mo"
      ],
      [
        "Ġh",
        "ËĪaÉľn"
      ],
      [
        "ËĪoËĲ",
        "ne"
      ],
      [
        "ĠkËĪÊĮÉ¾",
        "t"
      ],
      [
        "Ġsy",
        "Êģ"
      ],
      [
        "ËĮÉĶ",
        "É¾"
      ],
      [
        "ĠÉª",
        "f"
      ],
      [
        "u",
        "v"
      ],
      [
        "z",
        "ÉĻn"
      ],
      [
        "o",
        "l"
      ],
      [
        "Ï",
        "ĩ"
      ],
      [
        "i",
        "m"
      ],
      [
        "Ġm",
        "ËĪiÉĽ"
      ],
      [
        "ĠÃ°",
        "Éª"
      ],
      [
        "Ġv",
        "ËĪÉĽ"
      ],
      [
        "ÊĬ",
        "d"
      ],
      [
        "Ġt",
        "r"
      ],
      [
        "ËĪeËĲ",
        "s"
      ],
      [
        "Ã°",
        "e"
      ],
      [
        "d",
        "e"
      ],
      [
        "Ê°",
        "Ïĩ"
      ],
      [
        "ÉŁ",
        "Ê°"
      ],
      [
        "ËĮÉĻËĲ",
        "ÉªÉľ"
      ],
      [
        "b",
        "ËĲ"
      ],
      [
        "ËĪÊĬ",
        "k"
      ],
      [
        "ĠnËĪÉĶ",
        "ÉªÉľ"
      ],
      [
        "ĠËĮ",
        "iËĲ"
      ],
      [
        "ËĪÉĳËĲ",
        "t"
      ],
      [
        "ËĪiËĲ",
        "É¾"
      ],
      [
        "Ġt",
        "É¹"
      ],
      [
        "É¾",
        "ÉĶ"
      ],
      [
        "Ġw",
        "ÉĴz"
      ],
      [
        "Ġv",
        "u"
      ],
      [
        "b",
        "ÉĻl"
      ],
      [
        "b",
        "ÉĻ"
      ],
      [
        "É¹",
        "i"
      ],
      [
        "nt",
        "s"
      ],
      [
        "Ġs",
        "ËĪaËĲ"
      ],
      [
        "d",
        "Ê°"
      ],
      [
        "Ġt",
        "ÊĬ"
      ],
      [
        "ĠÊİ",
        "ËĮi"
      ],
      [
        "Î²",
        "a"
      ],
      [
        "h",
        "ËĪÉĻÉľÅĭ"
      ],
      [
        "Ġs",
        "ËĪiËĲ"
      ],
      [
        "ĠpËĮa",
        "É¾a"
      ],
      [
        "ËĪÉĽÉ¾",
        "ÉĶ"
      ],
      [
        "ËĪÉª",
        "s"
      ],
      [
        "É£",
        "o"
      ],
      [
        "ĠËĮa",
        "l"
      ],
      [
        "o",
        "r"
      ],
      [
        "Ġb",
        "ËĪÊĮh"
      ],
      [
        "Ġk",
        "ËĪoËĲ"
      ],
      [
        "Ġt",
        "ËĪÉĽ"
      ],
      [
        "Ġp",
        "ËĪo"
      ],
      [
        "ĠÊĴ",
        "ÉĻ"
      ],
      [
        "p",
        "Êģ"
      ],
      [
        "Ġ",
        "ËĪaÉª"
      ],
      [
        "hËĪÉĳ",
        "ÉľÅĭ"
      ],
      [
        "ÉĻl",
        "i"
      ],
      [
        "ËĪeÉª",
        "t"
      ],
      [
        "ĠjËĪiou",
        "Éľ"
      ],
      [
        "Ġd",
        "ËĪÉĻ"
      ],
      [
        "Ġm",
        "ËĪÉĶËĲ"
      ],
      [
        "l",
        "ËĪi"
      ],
      [
        "ËĮy",
        "ÉĻ"
      ],
      [
        "ĠlËĪoËĲ",
        "É¡"
      ],
      [
        "Ġn",
        "ËĪÊĮ"
      ],
      [
        "Ġh",
        "ËĪÊĬ"
      ],
      [
        "Ġn",
        "ËĪÉĻÉľÅĭ"
      ],
      [
        "ĠÊģ",
        "ÉĻ"
      ],
      [
        "z",
        "ËĪi"
      ],
      [
        "Ġt",
        "ËĪuËĲ"
      ],
      [
        "ĠkËĮo",
        "me"
      ],
      [
        "Ġl",
        "ËĪeËĲ"
      ],
      [
        "ËĪaËĲt",
        "aËĲ"
      ],
      [
        "Ġa",
        "n"
      ],
      [
        "ĠËĪy",
        "u"
      ],
      [
        "ĠËĮÊĮ",
        "É¡ÉĻÉ¾"
      ],
      [
        "ĠËĪÉª",
        "n"
      ],
      [
        "ĠhËĪo",
        "ÉĻ"
      ],
      [
        "v",
        "ÉĻ"
      ],
      [
        "ËĪÃ¸",
        "ËĲ"
      ],
      [
        "Î¸j",
        "a"
      ],
      [
        "ËĪuÉĻ",
        "Éľn"
      ],
      [
        "Ġk",
        "ÉĻÉ¾"
      ],
      [
        "ËĪa",
        "t"
      ],
      [
        "j",
        "ËĪÃ¸"
      ],
      [
        "ËĪÉĽt",
        "Êģ"
      ],
      [
        "Ġp",
        "ËĪÉĳu"
      ],
      [
        "st",
        "ÉĻ"
      ],
      [
        "Ġw",
        "ÉĴt"
      ],
      [
        "ËĪeËĲ",
        "l"
      ],
      [
        "ÊĪ",
        "i"
      ],
      [
        "Ġx",
        "ËĪaiÉľ"
      ],
      [
        "ËĪy",
        "Êģ"
      ],
      [
        "ĠhËĪoËĲ",
        "É¡aËĲ"
      ],
      [
        "Ġts",
        "ËĪi"
      ],
      [
        "ĠËĪÊĮ",
        "p"
      ],
      [
        "Ġn",
        "ËĮÉĴt"
      ],
      [
        "ĠlËĪÉª",
        "eËĲ"
      ],
      [
        "Ġh",
        "ËĪa"
      ],
      [
        "Ġf",
        "l"
      ],
      [
        "Ġn",
        "ËĪeËĲ"
      ],
      [
        "ËĮaËĲ",
        "Éª"
      ],
      [
        "Ġt",
        "ËĪuo"
      ],
      [
        "tÊĥ",
        "ËĲ"
      ],
      [
        "s",
        "ËĪe"
      ],
      [
        "bÊ°",
        "i"
      ],
      [
        "ĠbËĪÊĮh",
        "ÊĬt"
      ],
      [
        "ËĪÉĽ",
        "nd"
      ],
      [
        "Ġs",
        "ËĪÉĶ"
      ],
      [
        "ÉĻn",
        "s"
      ],
      [
        "ËĮÉĻ",
        "l"
      ],
      [
        "ÉĽ",
        "Éľ"
      ],
      [
        "ĠÉ¡",
        "l"
      ],
      [
        "ËĪÉª",
        "É¾"
      ],
      [
        "ËĪaËĲt",
        "a"
      ],
      [
        "Éľ",
        "ËĲ"
      ],
      [
        "ËĪÉĽnt",
        "o"
      ],
      [
        "sk",
        "ËĮoËĲ"
      ],
      [
        "ËĪÉĽ",
        "k"
      ],
      [
        "ts",
        "i"
      ],
      [
        "Ġt",
        "ËĪonÉ¡"
      ],
      [
        "Ġb",
        "iËĲ"
      ],
      [
        "Ġh",
        "ËĪaËĲÉª"
      ],
      [
        "Ġb",
        "ËĪi"
      ],
      [
        "j",
        "j"
      ],
      [
        "Êİ",
        "i"
      ],
      [
        "Ġk",
        "Ê°"
      ],
      [
        "Ġs",
        "ËĪo"
      ],
      [
        "ll",
        "o"
      ],
      [
        "Ġb",
        "aÉª"
      ],
      [
        "ĠÉĽ",
        "nt"
      ],
      [
        "Ġ",
        "ËĪiËĲ"
      ],
      [
        "ĠÉ¡",
        "ËĪo"
      ],
      [
        "É¾",
        "eËĲ"
      ],
      [
        "Ġk",
        "Êĭ"
      ],
      [
        "Ġm",
        "ËĪeiÉľ"
      ],
      [
        "ÊĬ",
        "ËĪÉĶËĲ"
      ],
      [
        "Ġt",
        "ËĪaÉª"
      ],
      [
        "Ġsu",
        "s"
      ],
      [
        "Ġr",
        "i"
      ],
      [
        "Ġv",
        "ËĮÉĽ"
      ],
      [
        "ËĪiËĲ",
        "no"
      ],
      [
        "v",
        "ano"
      ],
      [
        "ĠdËĮi",
        "ËĲ"
      ],
      [
        "ĠÊĲ",
        "ËĪaÉľn"
      ],
      [
        "Ê",
        "Ĥ"
      ],
      [
        "ĠÉĲ",
        "b"
      ],
      [
        "ËĪaËĲ",
        "h"
      ],
      [
        "Éª",
        "Êĥ"
      ],
      [
        "ĠdËĮe",
        "lla"
      ],
      [
        "tËĲ",
        "i"
      ],
      [
        "ĠËĪÊĬ",
        "n"
      ],
      [
        "Ġh",
        "iËĲ"
      ],
      [
        "Ġb",
        "ËĪaËĲt"
      ],
      [
        "Ġth",
        "ËĪi"
      ],
      [
        "Ġa",
        "m"
      ],
      [
        "Ġ",
        "ËĪoËĲ"
      ],
      [
        "Ġh",
        "u"
      ],
      [
        "Ġk",
        "ËĪÊĮh"
      ],
      [
        "Ġz",
        "ËĪÉĳËĲ"
      ],
      [
        "ĠÉ¡",
        "ËĮÉĶ"
      ],
      [
        "Ġ",
        "ËĪÉĻÊĬ"
      ],
      [
        "y",
        "ËĪi"
      ],
      [
        "Ġl",
        "ËĪÊĮ"
      ],
      [
        "Ġd",
        "ËĪeËĲ"
      ],
      [
        "Ġs",
        "ËĪÉĶËĲ"
      ],
      [
        "sk",
        "ËĮeËĲ"
      ],
      [
        "É¾",
        "o"
      ],
      [
        "Êģ",
        "ËĪÉĳ"
      ],
      [
        "t",
        "ËĪa"
      ],
      [
        "Ġk",
        "ËĪÊĬ"
      ],
      [
        "ËĪant",
        "e"
      ],
      [
        "Ġd",
        "ÉĶ"
      ],
      [
        "Ġs",
        "ËĪeÉª"
      ],
      [
        "Ġs",
        "ÉĽt"
      ],
      [
        "É¹",
        "Éª"
      ],
      [
        "ĠÉ¡ËĮÉĻÊĬ",
        "ÉªÅĭ"
      ],
      [
        "z",
        "o"
      ],
      [
        "Ġj",
        "ËĪaËĲ"
      ],
      [
        "ĠÉĴv",
        "Ã°ÉĻ"
      ],
      [
        "ĠÊ",
        "Ŀ"
      ],
      [
        "ĠÉĽ",
        "l"
      ],
      [
        "Ġs",
        "ËĪoËĲ"
      ],
      [
        "Ġth",
        "ËĪiÉľ"
      ],
      [
        "Ġ",
        "ËĪÉĽl"
      ],
      [
        "Ġly",
        "ËĮi"
      ],
      [
        "nd",
        "ÊĴ"
      ],
      [
        "ĠÉķ",
        "jËĪÉĳu"
      ],
      [
        "Î¸",
        "a"
      ],
      [
        "ĠÉ¾ËĮÉĻh",
        "eËĲ"
      ],
      [
        "Ġma",
        "Éª"
      ],
      [
        "j",
        "ÉĻ"
      ],
      [
        "ĠËĪÊĮ",
        "b"
      ],
      [
        "as",
        "jËĪÉĶ"
      ],
      [
        "d",
        "Êģ"
      ],
      [
        "Ġkh",
        "ËĪa"
      ],
      [
        "ĠËĪe",
        "s"
      ],
      [
        "v",
        "i"
      ],
      [
        "f",
        "i"
      ],
      [
        "ËĮÉĻ",
        "b"
      ],
      [
        "Ġr",
        "e"
      ],
      [
        "Ġav",
        "ËĮÉĽ"
      ],
      [
        "Ġt",
        "ËĮi"
      ],
      [
        "Ġk",
        "É¾"
      ],
      [
        "Ġb",
        "Éªk"
      ],
      [
        "st",
        "e"
      ],
      [
        "ËĪeËĲÊĥ",
        "c"
      ],
      [
        "p",
        "t"
      ],
      [
        "z",
        "ÉĻ"
      ],
      [
        "Ġw",
        "ËĪaËĲ"
      ],
      [
        "k",
        "l"
      ],
      [
        "ĠsËĪÊĮ",
        "m"
      ],
      [
        "Éª",
        "ÊĪ"
      ],
      [
        "d",
        "z"
      ],
      [
        "v",
        "o"
      ],
      [
        "ËĮa",
        "ÊĬt"
      ],
      [
        "nd",
        "e"
      ],
      [
        "Ġd",
        "ÉĽs"
      ],
      [
        "ĠÉŁ",
        "ËĪaËĲ"
      ],
      [
        "Ġr",
        "ËĮi"
      ],
      [
        "s",
        "ËĮeËĲ"
      ],
      [
        "É¡",
        "i"
      ],
      [
        "Ġal",
        "s"
      ],
      [
        "ËĪi",
        "Ã°o"
      ],
      [
        "ĠnËĪi",
        "Éľn"
      ],
      [
        "ÊĬ",
        "l"
      ],
      [
        "ts",
        "ËĲ"
      ],
      [
        "ËĪant",
        "o"
      ],
      [
        "ĠÉĹ",
        "ËĪÉĻÊĬ"
      ],
      [
        "kËĲ",
        "i"
      ],
      [
        "ĠsËĪÊĮ",
        "b"
      ],
      [
        "Ġn",
        "ËĪa"
      ],
      [
        "Ġl",
        "ËĮo"
      ],
      [
        "Ġph",
        "ËĪi"
      ],
      [
        "m",
        "ËĮe"
      ],
      [
        "Ġf",
        "a"
      ],
      [
        "k",
        "ÉĻ"
      ],
      [
        "Ġz",
        "ËĪu"
      ],
      [
        "n",
        "s"
      ],
      [
        "ĠÊģ",
        "e"
      ],
      [
        "Ġb",
        "ËĪo"
      ],
      [
        "ËĪaËĲt",
        "i"
      ],
      [
        "Ġm",
        "an"
      ],
      [
        "ĠlËĪi",
        "Éĳ"
      ],
      [
        "ĠÉĹ",
        "ËĮyÉĻ"
      ],
      [
        "Ġf",
        "ËĪÉĶËĲ"
      ],
      [
        "ĠkÊĭ",
        "ËĪeËĲÊĥc"
      ],
      [
        "Ġx",
        "ËĪÉĳ"
      ],
      [
        "ĠtÉķ",
        "ËĪu"
      ],
      [
        "j",
        "ÉĻÉ¾"
      ],
      [
        "ĠÉª",
        "st"
      ],
      [
        "w",
        "ËĪi"
      ],
      [
        "ĠËĮaÉªn",
        "ÉĻ"
      ],
      [
        "Éª",
        "É¡"
      ],
      [
        "Ġs",
        "ÊĪ"
      ],
      [
        "ËĪi",
        "ÉĻl"
      ],
      [
        "Ġn",
        "ËĪiÉĽÉľn"
      ],
      [
        "ĠËĮÉĽ",
        "ËĲ"
      ],
      [
        "ËĪaÉª",
        "nd"
      ],
      [
        "Ġz",
        "ËĪi"
      ],
      [
        "v",
        "ÉĻn"
      ],
      [
        "m",
        "z"
      ],
      [
        "Ã°",
        "os"
      ],
      [
        "dÊĴ",
        "ËĲ"
      ],
      [
        "j",
        "ËĪa"
      ],
      [
        "É¾",
        "ËĪÉĶ"
      ],
      [
        "l",
        "ËĪe"
      ],
      [
        "Ê",
        "²"
      ],
      [
        "Ġv",
        "ËĪÉĶ"
      ],
      [
        "Ġl",
        "ËĪiÉĽ"
      ],
      [
        "Î¸",
        "e"
      ],
      [
        "mËĪe",
        "nte"
      ],
      [
        "ĠÉªn",
        "Ã°ÉĻ"
      ],
      [
        "ĠaÉª",
        "m"
      ],
      [
        "n",
        "ÉĻn"
      ],
      [
        "Ġh",
        "ÉĻm"
      ],
      [
        "É¾",
        "aËĲ"
      ],
      [
        "ĠsËĪuo",
        "Éľ"
      ],
      [
        "ĠÉ²",
        "ËĪi"
      ],
      [
        "ĠÉ¹",
        "ËĪiÉĻl"
      ],
      [
        "l",
        "ËĪa"
      ],
      [
        "Ġb",
        "ËĪÉĶ"
      ],
      [
        "Ġk",
        "ËĪai"
      ],
      [
        "Êģ",
        "ËĪa"
      ],
      [
        "Ġw",
        "ËĪÉľËĲ"
      ],
      [
        "Ġa",
        "ËĲ"
      ],
      [
        "Ġp",
        "as"
      ],
      [
        "ËĪÊĮ",
        "s"
      ],
      [
        "w",
        "ËĪÉĽÉ¾"
      ],
      [
        "ĠÉĹ",
        "ËĪe"
      ],
      [
        "ĠhËĮa",
        "tÉĻ"
      ],
      [
        "a",
        "Éªn"
      ],
      [
        "ĠËĪÉĶ",
        "pÊ°"
      ],
      [
        "Êģ",
        "ËĪe"
      ],
      [
        "ĠÉŁaËĲ",
        "ËĪeËĲÉ¡aËĲ"
      ],
      [
        "ĠËĪÊĬ",
        "s"
      ],
      [
        "ĠtÉķhËĪi",
        "Éľ"
      ],
      [
        "nt",
        "Êĥ"
      ],
      [
        "Ġx",
        "ËĪuo"
      ],
      [
        "ËĪu",
        "Êģ"
      ],
      [
        "ĠÉª",
        "m"
      ],
      [
        "É³",
        "Éĸ"
      ],
      [
        "ËĪyÉĻ",
        "Éľkh"
      ],
      [
        "ĠËĪy",
        "ÉĽ"
      ],
      [
        "Ġm",
        "ËĮaËĲ"
      ],
      [
        "Åĵ",
        "Êģ"
      ],
      [
        "ĠËĪa",
        "lt"
      ],
      [
        "Ġk",
        "ÉĻm"
      ],
      [
        "Êİ",
        "o"
      ],
      [
        "ĠÉĲ",
        "n"
      ],
      [
        "Ġf",
        "y"
      ],
      [
        "ĠËĮÉĽ",
        "ra"
      ],
      [
        "ĠÉ¡",
        "ËĪÊĬ"
      ],
      [
        "Ġp",
        "ËĪÊĮ"
      ],
      [
        "l",
        "s"
      ],
      [
        "Ġl",
        "ËĪiËĲ"
      ],
      [
        "ĠÊĤ",
        "ËĪy"
      ],
      [
        "ĠbÉªk",
        "ËĪÊĮz"
      ],
      [
        "ĠÉ¡",
        "ÉĽt"
      ],
      [
        "Ġb",
        "É¾"
      ],
      [
        "t",
        "Ê°"
      ],
      [
        "tÉĻl",
        "ËĮÉĻb"
      ],
      [
        "x",
        "o"
      ],
      [
        "sk",
        "ËĮaËĲ"
      ],
      [
        "É²",
        "Ê²"
      ],
      [
        "ËĪeËĲk",
        "ÊĪ"
      ],
      [
        "r",
        "ÉĻ"
      ],
      [
        "tÊĥ",
        "o"
      ],
      [
        "ĠpÊģ",
        "ÉĶ"
      ],
      [
        "ĠÉ¹",
        "ËĪaÉªt"
      ],
      [
        "Ġp",
        "ËĪei"
      ],
      [
        "ËĮ",
        "ÉªÃ§"
      ],
      [
        "j",
        "ËĪÉĽÉ¾"
      ],
      [
        "tËĲ",
        "a"
      ],
      [
        "ĠÉĲb",
        "ËĮaÊĬt"
      ],
      [
        "ĠkÊĭËĪeËĲÊĥc",
        "ÉĻn"
      ],
      [
        "Ġv",
        "ËĪe"
      ],
      [
        "ÊĬ",
        "Éľ"
      ],
      [
        "Ġa",
        "kËĪe"
      ],
      [
        "Ġp",
        "ËĪai"
      ],
      [
        "v",
        "ËĪÉĽ"
      ],
      [
        "ĠÎ¸",
        "É¹"
      ],
      [
        "Éª",
        "f"
      ],
      [
        "Ġav",
        "ËĪÉĽ"
      ],
      [
        "Ġk",
        "ËĪe"
      ],
      [
        "d",
        "ËĪi"
      ],
      [
        "ËĪeËĲ",
        "Éĸ"
      ],
      [
        "Ġb",
        "ÉĻt"
      ],
      [
        "ÊĪ",
        "Ê°"
      ],
      [
        "t",
        "eËĲ"
      ],
      [
        "Î¸j",
        "ËĪÉĶn"
      ],
      [
        "d",
        "Éľ"
      ],
      [
        "ĠjËĪi",
        "Éľ"
      ],
      [
        "Ġv",
        "e"
      ],
      [
        "É£",
        "ËĪu"
      ],
      [
        "ËĪÊĮh",
        "ÉĻl"
      ],
      [
        "Ġp",
        "ÉĶ"
      ],
      [
        "ĠÉ¡",
        "r"
      ],
      [
        "ĠÃ°",
        "a"
      ],
      [
        "Ġv",
        "ËĪiËĲ"
      ],
      [
        "ĠËĮ",
        "ÉĳËĲ"
      ],
      [
        "ËĪÉĻÊĬ",
        "nt"
      ],
      [
        "Ġb",
        "ËĪaËĲÉ¾"
      ],
      [
        "ĠmËĪÊĮ",
        "tÉĻlËĮÉĻb"
      ],
      [
        "l",
        "d"
      ],
      [
        "ĠtÉķ",
        "ËĮÉĶ"
      ],
      [
        "p",
        "a"
      ],
      [
        "Ã°",
        "ËĪad"
      ],
      [
        "ËĪi",
        "É¾"
      ],
      [
        "Ġx",
        "ËĪu"
      ],
      [
        "ĠlËĪi",
        "ÉľÅĭ"
      ],
      [
        "ËĪeÉª",
        "s"
      ],
      [
        "ĠÉĹËĮe",
        "Éľn"
      ],
      [
        "Ġth",
        "ËĪiÉĽ"
      ],
      [
        "tËĲ",
        "e"
      ],
      [
        "ĠavËĮÉĽ",
        "k"
      ],
      [
        "ĠËĮ",
        "ÉĶ"
      ],
      [
        "Ġk",
        "ËĪÉĳu"
      ],
      [
        "Éª",
        "v"
      ],
      [
        "iËĲ",
        "z"
      ],
      [
        "ËĪo",
        "s"
      ],
      [
        "ĠÉ¡",
        "É¹"
      ],
      [
        "a",
        "nd"
      ],
      [
        "ĠlËĪi",
        "ou"
      ],
      [
        "ĠËĪo",
        "Éľ"
      ],
      [
        "É¡",
        "l"
      ],
      [
        "Ġp",
        "ËĪÉĶËĲ"
      ],
      [
        "Ġm",
        "ËĮeËĲ"
      ],
      [
        "Ġk",
        "ËĪÉĴ"
      ],
      [
        "n",
        "os"
      ],
      [
        "Ã§",
        "ÉĻn"
      ],
      [
        "f",
        "ÉĻn"
      ],
      [
        "ĠsËĪÊĮkt",
        "ËĮeËĲ"
      ],
      [
        "Ġ",
        "ËĪaÉªn"
      ],
      [
        "ËĪoËĲ",
        "re"
      ],
      [
        "j",
        "ËĪÉĽn"
      ],
      [
        "ĠÃ°",
        "ËĪÉĽn"
      ],
      [
        "ĠtÉķh",
        "ËĪiÉĽÉľn"
      ],
      [
        "Ġh",
        "ËĪaÉª"
      ],
      [
        "É¾",
        "ËĪÉĽ"
      ],
      [
        "Ġs",
        "ËĪu"
      ],
      [
        "ĠkËĪÉª",
        "jaËĲ"
      ],
      [
        "Ġpj",
        "ËĮÊĬ"
      ],
      [
        "ĠhÉĻm",
        "ËĮaËĲ"
      ],
      [
        "ĠËĮÊĮ",
        "p"
      ],
      [
        "Ġp",
        "ËĪÊĮhÉĻl"
      ],
      [
        "Ġx",
        "ËĪÉĻ"
      ],
      [
        "d",
        "ËĪe"
      ],
      [
        "Ġm",
        "Éĳ"
      ],
      [
        "ĠÊĬ",
        "m"
      ],
      [
        "nd",
        "ÉĻ"
      ],
      [
        "Ġd",
        "ËĪÉĻÊĬnt"
      ],
      [
        "ËĪeËĲ",
        "ÊĥÉĻn"
      ],
      [
        "ĠÃ°a",
        "ts"
      ],
      [
        "i",
        "s"
      ],
      [
        "Ġc",
        "ËĪaËĲh"
      ],
      [
        "p",
        "e"
      ],
      [
        "Ġs",
        "ËĮo"
      ],
      [
        "ĠÃ°",
        "ËĪe"
      ],
      [
        "Ġs",
        "ËĪaËĲt"
      ],
      [
        "ËĪa",
        "Êģ"
      ],
      [
        "Ġs",
        "ËĪe"
      ],
      [
        "ÉĻ",
        "k"
      ],
      [
        "Éª",
        "Êĭ"
      ],
      [
        "ĠkËĪoËĲ",
        "i"
      ],
      [
        "k",
        "ÉĶ"
      ],
      [
        "Ġv",
        "ËĪaËĲÊĬ"
      ],
      [
        "Ġf",
        "ËĪei"
      ],
      [
        "Ġl",
        "ËĪeËĲk"
      ],
      [
        "Ġh",
        "ËĪiÉĻ"
      ],
      [
        "Ġa",
        "ÊĬ"
      ],
      [
        "ËĪÉĽ",
        "ndo"
      ],
      [
        "ËĪe",
        "s"
      ],
      [
        "Ġz",
        "ËĪÉĶ"
      ],
      [
        "Ġ",
        "ËĪÉĽÉ¾a"
      ],
      [
        "nËĪi",
        "Éľn"
      ],
      [
        "ĠkËĪÊĮ",
        "m"
      ],
      [
        "Ġl",
        "ËĪÉĴ"
      ],
      [
        "Éª",
        "st"
      ],
      [
        "Ġp",
        "Éĳ"
      ],
      [
        "Ġf",
        "ËĪÉĶ"
      ],
      [
        "Ġth",
        "ËĪonÉ¡"
      ],
      [
        "nk",
        "e"
      ],
      [
        "ËĮ",
        "Éªk"
      ],
      [
        "ĠÉ²",
        "ËĪÉĻ"
      ],
      [
        "ËĮÊĮ",
        "m"
      ],
      [
        "ËĪiËĲ",
        "t"
      ],
      [
        "ĠwËĪÉĴ",
        "nt"
      ],
      [
        "ËĪaÎ²",
        "an"
      ],
      [
        "ĠbËĪÊĮ",
        "r"
      ],
      [
        "ÉĽ",
        "nd"
      ],
      [
        "ĠËĮÉĳËĲ",
        "bÉľ"
      ],
      [
        "Ġv",
        "ËĪaÉª"
      ],
      [
        "ĠtÊĥ",
        "ËĮi"
      ],
      [
        "ĠÎ¸ËĪÉªÅĭ",
        "k"
      ],
      [
        "st",
        "i"
      ],
      [
        "Ġk",
        "É¹"
      ],
      [
        "ĠËĪa",
        "ÊĬt"
      ],
      [
        "st",
        "ÉĻn"
      ],
      [
        "ĠÊĭ",
        "ËĪÊĮn"
      ],
      [
        "ĠÉ¡",
        "ËĮaËĲ"
      ],
      [
        "ËĪaËĲÉľ",
        "É²"
      ],
      [
        "Êģ",
        "i"
      ],
      [
        "ĠnËĪÉĶ",
        "x"
      ],
      [
        "ĠÉ¹ËĪiÉĻl",
        "Éª"
      ],
      [
        "Ġv",
        "ËĮi"
      ],
      [
        "ĠÃ°e",
        "ÉĻ"
      ],
      [
        "ËĮÉª",
        "tÊĥ"
      ],
      [
        "Ġv",
        "ËĪyÉĻ"
      ],
      [
        "ĠËĮaËĲpk",
        "ËĮaËĲ"
      ],
      [
        "Ġf",
        "ËĮaËĲÉª"
      ],
      [
        "Ġp",
        "ËĪÉĶ"
      ],
      [
        "ĠnËĪÊĮ",
        "mb"
      ],
      [
        "Î¸",
        "es"
      ],
      [
        "j",
        "ËĪÉĽÊģ"
      ],
      [
        "ĠkËĪÊĬ",
        "cÊ°"
      ],
      [
        "m",
        "ËĪÉĽ"
      ],
      [
        "Ġv",
        "ËĪu"
      ],
      [
        "Ġl",
        "ÅĵÊģ"
      ],
      [
        "ĠiËĲ",
        "m"
      ],
      [
        "ÊĪ",
        "ÉĻÉ¾"
      ],
      [
        "tÊĥ",
        "i"
      ],
      [
        "ËĲ",
        "s"
      ],
      [
        "Ġt",
        "ËĪy"
      ],
      [
        "ĠmËĪi",
        "ÉľÅĭ"
      ],
      [
        "É¾",
        "ËĪe"
      ],
      [
        "m",
        "ËĮa"
      ],
      [
        "Ġm",
        "ËĮiËĲ"
      ],
      [
        "ĠÉĽ",
        "ks"
      ],
      [
        "Éª",
        "p"
      ],
      [
        "ĠkËĪÊĮÉ¾",
        "nËĮaËĲ"
      ],
      [
        "ĠËĮaÊĬ",
        "x"
      ],
      [
        "r",
        "ËĪiËĲ"
      ],
      [
        "Ġc",
        "ËĪÊĮl"
      ],
      [
        "m",
        "os"
      ],
      [
        "ĠkËĪÊĮÉ¾t",
        "ËĮeËĲ"
      ],
      [
        "iËĲ",
        "É¾"
      ],
      [
        "k",
        "ÉĻn"
      ],
      [
        "Ġd",
        "ËĪu"
      ],
      [
        "n",
        "aËĲ"
      ],
      [
        "Ġp",
        "wËĪe"
      ],
      [
        "ËĮÉĶ",
        "Éª"
      ],
      [
        "ĠtÉķh",
        "ËĪiÉĽ"
      ],
      [
        "ĠÎ²",
        "ËĪi"
      ],
      [
        "ËĪiÉĽ",
        "Éľt"
      ],
      [
        "Ġt",
        "e"
      ],
      [
        "ËĪaÃ°",
        "os"
      ],
      [
        "m",
        "ËĪa"
      ],
      [
        "Ġv",
        "ËĪo"
      ],
      [
        "Ġm",
        "ËĪÉª"
      ],
      [
        "Ġb",
        "ËĮi"
      ],
      [
        "a",
        "d"
      ],
      [
        "d",
        "o"
      ],
      [
        "Ġn",
        "ËĪaÊĬ"
      ],
      [
        "ĠÊ²ËĪy",
        "Éľ"
      ],
      [
        "w",
        "ËĪÉĽ"
      ],
      [
        "ËĪi",
        "s"
      ],
      [
        "e",
        "l"
      ],
      [
        "Ġpa",
        "r"
      ],
      [
        "Ġt",
        "ËĪai"
      ],
      [
        "ĠdËĪÉª",
        "jaËĲ"
      ],
      [
        "h",
        "ËĪi"
      ],
      [
        "ĠÉ¾",
        "ËĪÊĮ"
      ],
      [
        "Ġd",
        "ËĪe"
      ],
      [
        "ËĪaÉª",
        "d"
      ],
      [
        "Ġp",
        "er"
      ],
      [
        "Ġs",
        "ËĮÉĶ"
      ],
      [
        "w",
        "e"
      ],
      [
        "ÊĬ",
        "m"
      ],
      [
        "Ġi",
        "n"
      ],
      [
        "ĠjËĪuËĲ",
        "z"
      ],
      [
        "ËĪiËĲp",
        "ÉĻl"
      ],
      [
        "ĠÊĭ",
        "ËĪaËĲl"
      ],
      [
        "Ġe",
        "tËĪÉĽ"
      ],
      [
        "ËĮÉĽ",
        "m"
      ],
      [
        "Ġn",
        "ËĪu"
      ],
      [
        "ËĪÉĽ",
        "kt"
      ],
      [
        "ĠiËĲ",
        "É¾"
      ],
      [
        "Ġb",
        "É¹"
      ],
      [
        "Ġtsh",
        "ËĪi"
      ],
      [
        "ĠÉĹ",
        "ËĪÉĶÉľ"
      ],
      [
        "Ġkw",
        "ËĮa"
      ],
      [
        "Ġf",
        "ËĪuÉľ"
      ],
      [
        "w",
        "ËĮa"
      ],
      [
        "Ġd",
        "ËĪiËĲ"
      ],
      [
        "ĠÉ¡",
        "ËĪyÉĻ"
      ],
      [
        "ËĮÉĽ",
        "ËĲ"
      ],
      [
        "r",
        "ËĪa"
      ],
      [
        "Ġn",
        "e"
      ],
      [
        "Ġz",
        "ËĪyÉĻ"
      ],
      [
        "Ġb",
        "ËĪaÉª"
      ],
      [
        "ĠÉŁ",
        "ËĪÊĮb"
      ],
      [
        "ËĪuËĲ",
        "to"
      ],
      [
        "ÊĬ",
        "nt"
      ],
      [
        "Ġc",
        "Ê°"
      ],
      [
        "ËĪÉĽnt",
        "i"
      ],
      [
        "ËĪo",
        "ÉĻ"
      ],
      [
        "Ġs",
        "ËĮÊĮm"
      ],
      [
        "Ġl",
        "Éĳ"
      ],
      [
        "ËĮe",
        "va"
      ],
      [
        "É¾",
        "ÉĽ"
      ],
      [
        "nt",
        "Éľ"
      ],
      [
        "Ġm",
        "ËĪÉĽn"
      ],
      [
        "ËĪÉĳËĲ",
        "k"
      ],
      [
        "Ġki",
        "l"
      ],
      [
        "ËĪon",
        "es"
      ],
      [
        "f",
        "f"
      ],
      [
        "Ġm",
        "ËĪÉĽËĲ"
      ],
      [
        "Ġv",
        "ËĪÉĻÉª"
      ],
      [
        "Ġ",
        "ËĪÉĶËĲ"
      ],
      [
        "ĠËĮÉª",
        "nt"
      ],
      [
        "ÊĬ",
        "n"
      ],
      [
        "Ġw",
        "Éªl"
      ],
      [
        "Ġs",
        "in"
      ],
      [
        "ĠËĮa",
        "lla"
      ],
      [
        "ĠaÎ²",
        "ËĪia"
      ],
      [
        "p",
        "i"
      ],
      [
        "ËĪo",
        "Éľ"
      ],
      [
        "Éªj",
        "ËĮaËĲ"
      ],
      [
        "k",
        "u"
      ],
      [
        "Ġv",
        "ËĪÉª"
      ],
      [
        "Ġtu",
        "t"
      ],
      [
        "ĠtËĪe",
        "Éľ"
      ],
      [
        "Ġh",
        "ËĪÉĶ"
      ],
      [
        "Î²",
        "É¾e"
      ],
      [
        "s",
        "ÉĻÉ¾"
      ],
      [
        "Ġkh",
        "ËĪai"
      ],
      [
        "Ġm",
        "ËĪÉĶ"
      ],
      [
        "Ġt",
        "a"
      ],
      [
        "ĠÉ²",
        "ËĪaËĲ"
      ],
      [
        "Ġn",
        "u"
      ],
      [
        "ËĪuËĲ",
        "n"
      ],
      [
        "ĠÉĻËĲ",
        "Éľ"
      ],
      [
        "ĠËĪa",
        "ÊĬf"
      ],
      [
        "ËĪiËĲd",
        "Éľ"
      ],
      [
        "nt",
        "i"
      ],
      [
        "Ġp",
        "ËĪiËĲpÉĻl"
      ],
      [
        "Ġk",
        "j"
      ],
      [
        "Ġp",
        "e"
      ],
      [
        "Ġm",
        "ËĪÉĳ"
      ],
      [
        "ËĮa",
        "Éª"
      ],
      [
        "ËĪaËĲ",
        "le"
      ],
      [
        "Ġv",
        "ËĮÉĻËĲÉªÉľ"
      ],
      [
        "mp",
        "o"
      ],
      [
        "ĠkËĪÉª",
        "t"
      ],
      [
        "Ġn",
        "ËĮÉĽ"
      ],
      [
        "ĠÉŁ",
        "ËĪaËĲtaËĲ"
      ],
      [
        "ĠsËĪaËĲt",
        "Ê°"
      ],
      [
        "ĠÉŁ",
        "ËĪi"
      ],
      [
        "Ġs",
        "o"
      ],
      [
        "Ġb",
        "ËĪÉĽ"
      ],
      [
        "k",
        "ËĪi"
      ],
      [
        "Éªt",
        "i"
      ],
      [
        "Ġts",
        "i"
      ],
      [
        "Ġk",
        "Êģ"
      ],
      [
        "ËĮ",
        "ÉĴ"
      ],
      [
        "É¡",
        "ÉĻl"
      ],
      [
        "k",
        "st"
      ],
      [
        "Ġm",
        "ËĪÉĻËĲ"
      ],
      [
        "ËĪÊĮ",
        "k"
      ],
      [
        "Ġn",
        "ËĪaËĲÊĬ"
      ],
      [
        "Ġa",
        "p"
      ],
      [
        "ĠlËĪÉª",
        "kÊ°"
      ],
      [
        "ll",
        "i"
      ],
      [
        "ĠkwËĪa",
        "l"
      ],
      [
        "Ġ",
        "ËĪÉĻËĲ"
      ],
      [
        "Ġts",
        "ËĪuei"
      ],
      [
        "Ġd",
        "o"
      ],
      [
        "ĠkËĲ",
        "jËĪo"
      ],
      [
        "ÊĬ",
        "z"
      ],
      [
        "Ġp",
        "ËĪaËĲ"
      ],
      [
        "Ġm",
        "ËĪuËĲ"
      ],
      [
        "ĠÉ¡ÉĻ",
        "v"
      ],
      [
        "r",
        "ËĪi"
      ],
      [
        "Ġt",
        "w"
      ],
      [
        "ËĮ",
        "Éªn"
      ],
      [
        "d",
        "ËĪÉĳ"
      ],
      [
        "ĠÃ°",
        "ËĪi"
      ],
      [
        "ĠËĪaËĲ",
        "i"
      ],
      [
        "Ġh",
        "ËĪiÉĽ"
      ],
      [
        "ĠÃ°",
        "ËĮÉĽm"
      ],
      [
        "ĠpÊ°",
        "ËĪÉªÉ¾"
      ],
      [
        "ÉĴ",
        "m"
      ],
      [
        "ĠËĮ",
        "eËĲ"
      ],
      [
        "Ġth",
        "ËĪaiÉľ"
      ],
      [
        "Ġv",
        "ËĪas"
      ],
      [
        "Ġn",
        "ÉĳËĲ"
      ],
      [
        "p",
        "ÉĻn"
      ],
      [
        "Ġp",
        "ËĮÉĻÉ¾"
      ],
      [
        "ĠÉĹ",
        "ËĪaËĲÉª"
      ],
      [
        "ËĪou",
        "Éľ"
      ],
      [
        "ĠÊĲ",
        "ËĪuÉľ"
      ],
      [
        "ĠmËĪa",
        "n"
      ],
      [
        "ĠtËĪÉĻ",
        "ÉªÉľ"
      ],
      [
        "Ġl",
        "ËĪaËĲÊĬ"
      ],
      [
        "m",
        "ËĪÉĽnte"
      ],
      [
        "ĠfËĪa",
        "m"
      ],
      [
        "s",
        "jËĪÉĶ"
      ],
      [
        "Ġp",
        "ËĪÉĻ"
      ],
      [
        "ËĪeËĲ",
        "m"
      ],
      [
        "Ġp",
        "ËĪÊĮr"
      ],
      [
        "j",
        "ËĪi"
      ],
      [
        "Ġl",
        "ÉĽ"
      ],
      [
        "Ġt",
        "en"
      ],
      [
        "ËĪoËĲ",
        "ra"
      ],
      [
        "k",
        "i"
      ],
      [
        "ĠÊĤ",
        "ËĪaËĲÊĬ"
      ],
      [
        "k",
        "Éª"
      ],
      [
        "bËĲ",
        "e"
      ],
      [
        "ËĪa",
        "lt"
      ],
      [
        "Ã°",
        "Éª"
      ],
      [
        "p",
        "ËĪi"
      ],
      [
        "ĠËĮÉĽ",
        "nt"
      ],
      [
        "Ġm",
        "ËĪei"
      ],
      [
        "Ġh",
        "ËĪÉĻÊĬ"
      ],
      [
        "Ġh",
        "ËĪÉĽÉ¾"
      ],
      [
        "j",
        "ËĪÉĳ"
      ],
      [
        "ĠhËĪÊĬ",
        "aËĲ"
      ],
      [
        "m",
        "Éľ"
      ],
      [
        "Ġd",
        "Ê°"
      ],
      [
        "ĠtÊĥ",
        "ËĪe"
      ],
      [
        "l",
        "ËĪÉĽ"
      ],
      [
        "ËĪaËĲt",
        "e"
      ],
      [
        "Ġp",
        "ËĪuËĲ"
      ],
      [
        "Ġm",
        "ËĪÊĬ"
      ],
      [
        "ËĪaËĲÉª",
        "ÊĪ"
      ],
      [
        "d",
        "iËĲ"
      ],
      [
        "ĠfÉ¹",
        "ÉĴm"
      ],
      [
        "Ġh",
        "ËĪÉĳËĲ"
      ],
      [
        "Î²",
        "o"
      ],
      [
        "ĠmËĪi",
        "Éľn"
      ],
      [
        "ĠÃ°",
        "iËĲz"
      ],
      [
        "Ġk",
        "ËĪou"
      ],
      [
        "ËĪiËĲ",
        "na"
      ],
      [
        "Ġav",
        "ËĮeva"
      ],
      [
        "Ġ",
        "ËĪaËĲÉ¾"
      ],
      [
        "Ġn",
        "ËĪuËĲÉ¾"
      ],
      [
        "ĠÎ²",
        "ËĪe"
      ],
      [
        "Ġz",
        "aÉªn"
      ],
      [
        "ËĪÉĽ",
        "d"
      ],
      [
        "É",
        "Ĺ"
      ],
      [
        "ËĪeÉª",
        "k"
      ],
      [
        "s",
        "ËĮÉĻÊĬ"
      ],
      [
        "ËĪeËĲ",
        "ÉŁ"
      ],
      [
        "ĠÊĤ",
        "ËĪÉĻËĲ"
      ],
      [
        "j",
        "e"
      ],
      [
        "cÊ°",
        "ËĲ"
      ],
      [
        "ËĪÉĶ",
        "r"
      ],
      [
        "ÉĽ",
        "ËĲ"
      ],
      [
        "ĠtÉķhËĪy",
        "Ã¦Éľn"
      ],
      [
        "ĠËĮaÉªn",
        "ÉĻn"
      ],
      [
        "ĠiËĲ",
        "n"
      ],
      [
        "ĠbËĪÊĮ",
        "c"
      ],
      [
        "ËĪiËĲ",
        "m"
      ],
      [
        "É¾",
        "as"
      ],
      [
        "ËĮÉĻ",
        "s"
      ],
      [
        "Ġv",
        "ËĪeËĲ"
      ],
      [
        "ĠËĪÉĻr",
        "Éľ"
      ],
      [
        "Ġd",
        "uËĲ"
      ],
      [
        "nt",
        "ÉĻ"
      ],
      [
        "ĠpÉ¹",
        "ËĪÉĴ"
      ],
      [
        "Ġb",
        "ËĪÉª"
      ],
      [
        "ĠwËĪo",
        "Éľ"
      ],
      [
        "n",
        "ËĮi"
      ],
      [
        "Ġh",
        "ÉĲ"
      ],
      [
        "Ġk",
        "ËĪÉĽ"
      ],
      [
        "Ġe",
        "t"
      ],
      [
        "jËĪÉĽ",
        "ndo"
      ],
      [
        "ĠËĪai",
        "Éľ"
      ],
      [
        "Ġl",
        "i"
      ],
      [
        "ĠËĪaÊĬ",
        "s"
      ],
      [
        "kËĲ",
        "o"
      ],
      [
        "ĠÉĹ",
        "ËĪyÉĻ"
      ],
      [
        "k",
        "eËĲ"
      ],
      [
        "Ġf",
        "ËĪiËĲl"
      ],
      [
        "ĠbÊ°",
        "ËĪaËĲi"
      ],
      [
        "ĠÉ¡ÉĻ",
        "Êĥ"
      ],
      [
        "ÊĴ",
        "ËĪe"
      ],
      [
        "Ġn",
        "jËĪuËĲ"
      ],
      [
        "ĠËĪa",
        "k"
      ],
      [
        "ĠÉĹ",
        "ËĪaËĲ"
      ],
      [
        "z",
        "ËĪa"
      ],
      [
        "v",
        "ËĪe"
      ],
      [
        "ĠhËĮa",
        "ÊĬ"
      ],
      [
        "ÉĲ",
        "Ã§"
      ],
      [
        "ĠÉ¾ËĪÊĮ",
        "kÊ°"
      ],
      [
        "p",
        "ËĪe"
      ],
      [
        "ĠtÉĻ",
        "bi"
      ],
      [
        "ĠpËĪÊĮhÉĻl",
        "ËĮeËĲ"
      ],
      [
        "Ġf",
        "ËĪÉĽ"
      ],
      [
        "Ġw",
        "ËĮÉªtÊĥ"
      ],
      [
        "ĠtÉķËĪy",
        "ÉĽÉľ"
      ],
      [
        "w",
        "ËĮe"
      ],
      [
        "ËĮa",
        "Éªt"
      ],
      [
        "ĠnÉĳËĲ",
        "x"
      ],
      [
        "ĠkËĪÉĶËĲ",
        "n"
      ],
      [
        "ÊĬ",
        "k"
      ],
      [
        "ĠbËĪaËĲ",
        "d"
      ],
      [
        "Åĭ",
        "ÉĻn"
      ],
      [
        "Ġn",
        "i"
      ],
      [
        "Ġb",
        "ËĪe"
      ],
      [
        "Ġm",
        "ËĮÊĬ"
      ],
      [
        "ËĪa",
        "r"
      ],
      [
        "ĠmËĮe",
        "Éªk"
      ],
      [
        "Ġs",
        "ËĪaËĲÉ¾"
      ],
      [
        "Î²",
        "e"
      ],
      [
        "ĠtÉķhËĪi",
        "ÉľÅĭ"
      ],
      [
        "it",
        "ËĪe"
      ],
      [
        "k",
        "ËĮe"
      ],
      [
        "ËĪÉĽËĲ",
        "l"
      ],
      [
        "ËĮ",
        "ÉĴn"
      ],
      [
        "ËĮ",
        "Éĳ"
      ],
      [
        "Ġb",
        "ËĪÉªl"
      ],
      [
        "Ġw",
        "ÊĬd"
      ],
      [
        "Ġb",
        "ËĪoËĲl"
      ],
      [
        "r",
        "d"
      ],
      [
        "i",
        "ÉĻ"
      ],
      [
        "Ġd",
        "a"
      ],
      [
        "Ġb",
        "ËĪaËĲÊĬ"
      ],
      [
        "ĠnËĪÊĮmb",
        "ÉĻÉ¾"
      ],
      [
        "ËĪaËĲÉª",
        "Éľ"
      ],
      [
        "ĠÉĽ",
        "m"
      ],
      [
        "Ġm",
        "iËĲÉ¾"
      ],
      [
        "ËĪeÉª",
        "m"
      ],
      [
        "l",
        "os"
      ],
      [
        "ËĮÉĽ",
        "t"
      ],
      [
        "ĠËĮaÊĬ",
        "s"
      ],
      [
        "ĠmËĪa",
        "Éľt"
      ],
      [
        "Ġw",
        "ËĪuÉĻ"
      ],
      [
        "Ġw",
        "ËĪeÉª"
      ],
      [
        "Ġse",
        "É²"
      ],
      [
        "Ġb",
        "jËĪÉĽ"
      ],
      [
        "Ġw",
        "ÉĽn"
      ],
      [
        "f",
        "l"
      ],
      [
        "Ġkh",
        "wËĪa"
      ],
      [
        "d",
        "ËĪÉĽ"
      ],
      [
        "v",
        "É¹Éª"
      ],
      [
        "ĠËĪa",
        "É¾"
      ],
      [
        "jËĪÉĳu",
        "Éľ"
      ],
      [
        "ĠËĮaËĲpk",
        "ËĮeËĲ"
      ],
      [
        "b",
        "Êģ"
      ],
      [
        "ĠtËĪaÉª",
        "m"
      ],
      [
        "Ġ",
        "ËĪÉĳ"
      ],
      [
        "Ġs",
        "ËĮa"
      ],
      [
        "Ġz",
        "ËĪoÉª"
      ],
      [
        "ËĪÉĶÉ¾",
        "a"
      ],
      [
        "Ġd",
        "ËĪÃ¸"
      ],
      [
        "ËĪÉĶÉ¾",
        "t"
      ],
      [
        "ĠÅĭ",
        "ËĪÉĶ"
      ],
      [
        "m",
        "in"
      ],
      [
        "Ġl",
        "ËĪÊĬk"
      ],
      [
        "ËĪÉĶËĲ",
        "t"
      ],
      [
        "ĠËĪÉĶ",
        "tÉ¾"
      ],
      [
        "Ġf",
        "ËĪaÉª"
      ],
      [
        "ĠÉ¡",
        "ÉĴt"
      ],
      [
        "ËĪeËĲ",
        "ÉĻn"
      ],
      [
        "k",
        "ËĪÉĶ"
      ],
      [
        "ĠvËĪÉĽ",
        "É¹i"
      ],
      [
        "m",
        "ÉĽ"
      ],
      [
        "ËĪaÉª",
        "z"
      ],
      [
        "Ġe",
        "sp"
      ],
      [
        "É²",
        "a"
      ],
      [
        "Ġl",
        "ËĪo"
      ],
      [
        "ËĪÉĽËĲ",
        "ra"
      ],
      [
        "Î²",
        "ËĪi"
      ],
      [
        "ou",
        "Éľ"
      ],
      [
        "ËĮÉĻ",
        "k"
      ],
      [
        "tÊĥ",
        "uËĲ"
      ],
      [
        "Ġn",
        "ËĪyÉĻ"
      ],
      [
        "ÊĪ",
        "É¾"
      ],
      [
        "ĠÉ¡",
        "ËĪy"
      ],
      [
        "ĠtËĪo",
        "Ã°o"
      ],
      [
        "ËĪÉª",
        "Ã§t"
      ],
      [
        "Ġm",
        "ÉªÃ§"
      ],
      [
        "ĠËĪa",
        "nd"
      ],
      [
        "Ġkw",
        "ËĮÉĽl"
      ],
      [
        "ĠÊĤ",
        "ËĪaËĲ"
      ],
      [
        "ĠnËĪi",
        "Éľ"
      ],
      [
        "ËĪÉĶ",
        "p"
      ],
      [
        "ËĪiËĲ",
        "z"
      ],
      [
        "ĠÊĤ",
        "ËĪaÊĬ"
      ],
      [
        "ĠÉ¾ËĮÉĻh",
        "i"
      ],
      [
        "ĠsËĮÊĬ",
        "o"
      ],
      [
        "ĠÉĽ",
        "É¡"
      ],
      [
        "Ġd",
        "Åĵ"
      ],
      [
        "ĠÉ¡ËĮaËĲ",
        "ÉªÉľ"
      ],
      [
        "d",
        "Éª"
      ],
      [
        "l",
        "ËĮa"
      ],
      [
        "st",
        "ËĪi"
      ],
      [
        "ĠdËĮiËĲ",
        "z"
      ],
      [
        "Ġt",
        "ËĮÊĬ"
      ],
      [
        "Î¸",
        "i"
      ],
      [
        "ĠËĪÉª",
        "skËĮoËĲ"
      ],
      [
        "nd",
        "ÉĻn"
      ],
      [
        "Ġts",
        "v"
      ],
      [
        "Ġh",
        "ËĪÉĻËĲ"
      ],
      [
        "ĠÊĥ",
        "ËĪÊĬ"
      ],
      [
        "ÉĻt",
        "ËĮeËĲ"
      ],
      [
        "p",
        "ËĮÉĽ"
      ],
      [
        "ËĪaÉ¾",
        "ÉĶn"
      ],
      [
        "Ġp",
        "ÉĽÊģ"
      ],
      [
        "Ġ",
        "y"
      ],
      [
        "m",
        "nËĮeËĲ"
      ],
      [
        "ËĪÉĽ",
        "llo"
      ],
      [
        "ĠÉ¡",
        "ËĪÉĻ"
      ],
      [
        "ĠËĮa",
        "d"
      ],
      [
        "ĠÊĥ",
        "v"
      ],
      [
        "ËĪÊı",
        "É¾"
      ],
      [
        "r",
        "ËĪe"
      ],
      [
        "y",
        "ËĲ"
      ],
      [
        "Ġp",
        "ËĪaËĲs"
      ],
      [
        "Ġ",
        "ËĪÉĽn"
      ],
      [
        "Éª",
        "dÊĴ"
      ],
      [
        "ËĪua",
        "i"
      ],
      [
        "Ġf",
        "i"
      ],
      [
        "Ġt",
        "ËĪyÉĻ"
      ],
      [
        "ËĪaËĲ",
        "ÉŁ"
      ],
      [
        "Ġt",
        "jËĪe"
      ],
      [
        "ËĪaËĲn",
        "aËĲ"
      ],
      [
        "st",
        "É¾"
      ],
      [
        "Êİ",
        "e"
      ],
      [
        "ËĮe",
        "Éªt"
      ],
      [
        "b",
        "a"
      ],
      [
        "Ã°",
        "as"
      ],
      [
        "v",
        "Êģ"
      ],
      [
        "Ġz",
        "ËĪÉĻËĲ"
      ],
      [
        "ËĪaËĲ",
        "li"
      ],
      [
        "ÉŁÊ°",
        "eËĲ"
      ],
      [
        "ËĪaËĲt",
        "eËĲ"
      ],
      [
        "Ġv",
        "ËĪa"
      ],
      [
        "Ġsa",
        "l"
      ],
      [
        "ËĪaËĲ",
        "no"
      ],
      [
        "ĠÉ¡ÉĻ",
        "z"
      ],
      [
        "ĠhËĪoËĲ",
        "ti"
      ],
      [
        "ĠÉ²",
        "ËĪiÉĽ"
      ],
      [
        "t",
        "Éľ"
      ],
      [
        "ĠËĪaËĲ",
        "p"
      ],
      [
        "Ġw",
        "ËĪÉĽl"
      ],
      [
        "Ġm",
        "ËĪÉªl"
      ],
      [
        "Ġfy",
        "ËĲÉ¾"
      ],
      [
        "ËĪÉĽËĲs",
        "aËĲ"
      ],
      [
        "Ġb",
        "ËĮiËĲ"
      ],
      [
        "ËĪaËĲ",
        "jaËĲ"
      ],
      [
        "ËĪÉª",
        "p"
      ],
      [
        "Ġf",
        "Êģ"
      ],
      [
        "tsi",
        "ËĪoËĲne"
      ],
      [
        "Ġw",
        "ËĪuÉľ"
      ],
      [
        "Ġv",
        "i"
      ],
      [
        "ĠwËĪÉĳ",
        "Éľn"
      ],
      [
        "ËĪoËĲ",
        "n"
      ],
      [
        "ĠÉĹ",
        "ËĪÉĻÉª"
      ],
      [
        "ĠÊĿ",
        "ËĪo"
      ],
      [
        "Ġr",
        "a"
      ],
      [
        "m",
        "ÉĻnt"
      ],
      [
        "ËĪaÊĬ",
        "nd"
      ],
      [
        "Ġp",
        "ÉĽÉ¾"
      ],
      [
        "ĠÉĹ",
        "ËĪaËĲÊĬ"
      ],
      [
        "oËĲ",
        "É¾"
      ],
      [
        "h",
        "ËĪo"
      ],
      [
        "ĠÉĴ",
        "n"
      ],
      [
        "ĠÊİ",
        "e"
      ],
      [
        "ĠsËĪÉª",
        "ks"
      ],
      [
        "É¡",
        "n"
      ],
      [
        "ĠÉ¡",
        "ËĪa"
      ],
      [
        "Ġ",
        "Î¸j"
      ],
      [
        "Ġp",
        "ËĪe"
      ],
      [
        "sp",
        "e"
      ],
      [
        "Ġv",
        "ËĪÉĻ"
      ],
      [
        "Ġf",
        "ËĪÉª"
      ],
      [
        "ĠËĮÉªnt",
        "ÊĬ"
      ],
      [
        "l",
        "ÉĻn"
      ],
      [
        "Ġn",
        "ËĪiËĲd"
      ],
      [
        "ĠsËĮÊĬ",
        "a"
      ],
      [
        "ĠËĪu",
        "m"
      ],
      [
        "Ġd",
        "ËĪeÉª"
      ],
      [
        "ĠËĪÊĮ",
        "bÊ°i"
      ],
      [
        "ËĪÉĳËĲ",
        "É¾"
      ],
      [
        "Ġb",
        "ËĪiÉĽÉľt"
      ],
      [
        "Êİ",
        "os"
      ],
      [
        "Ġtsh",
        "ËĪaiÉľ"
      ],
      [
        "ĠËĮÉª",
        "skËĮaËĲ"
      ],
      [
        "ĠaÊĬ",
        "ÉĻ"
      ],
      [
        "ĠËĪy",
        "Ã¦"
      ],
      [
        "Ġd",
        "yn"
      ],
      [
        "Ġm",
        "ËĪiËĲn"
      ],
      [
        "ĠËĪÊĮ",
        "cÊ°ËĲ"
      ],
      [
        "Ġs",
        "ÉĽ"
      ],
      [
        "Ġn",
        "ËĪy"
      ],
      [
        "Ġn",
        "ËĮÉĽl"
      ],
      [
        "É¡",
        "É¾"
      ],
      [
        "Êĥ",
        "ËĪe"
      ],
      [
        "ĠÊĤ",
        "ËĮÉĽ"
      ],
      [
        "ĠËĪÉĽ",
        "vÉ¹Éª"
      ],
      [
        "ËĪÉĽl",
        "p"
      ],
      [
        "ĠbËĪa",
        "k"
      ],
      [
        "Ġ",
        "eËĲ"
      ],
      [
        "Ġf",
        "ËĪaËĲ"
      ],
      [
        "Ġk",
        "ÉĽl"
      ],
      [
        "ĠËĪeËĲ",
        "s"
      ],
      [
        "j",
        "ËĪaËĲd"
      ],
      [
        "Ġl",
        "ËĮi"
      ],
      [
        "mb",
        "É¾e"
      ],
      [
        "k",
        "tÉĻ"
      ],
      [
        "nt",
        "a"
      ],
      [
        "t",
        "ËĪu"
      ],
      [
        "ĠÃ°",
        "ËĪat"
      ],
      [
        "ĠËĪa",
        "Î²"
      ],
      [
        "ÉĻÉ¹",
        "i"
      ],
      [
        "ĠkwËĮÉĽ",
        "lla"
      ],
      [
        "Ġb",
        "ÉĻn"
      ],
      [
        "r",
        "ËĮÉĽ"
      ],
      [
        "Ġn",
        "ÉĶ"
      ],
      [
        "ĠÉ¡",
        "ËĪÉª"
      ],
      [
        "ĠËĪa",
        "p"
      ],
      [
        "É¹",
        "ÉĻ"
      ],
      [
        "ËĪa",
        "Éľkh"
      ],
      [
        "ĠÊĲ",
        "ËĪi"
      ],
      [
        "Ġ",
        "ËĪÉĳËĲ"
      ],
      [
        "Éª",
        "É¡ÉĻn"
      ],
      [
        "Ġw",
        "ËĪai"
      ],
      [
        "Ġp",
        "ÉĻt"
      ],
      [
        "kËĲ",
        "a"
      ],
      [
        "Ġb",
        "ËĪÉĽËĲ"
      ],
      [
        "ËĪeËĲ",
        "Êĭ"
      ],
      [
        "ls",
        "ÉĻÊĬ"
      ],
      [
        "ĠcËĪaËĲh",
        "ÉªËĮeËĲ"
      ],
      [
        "Ġk",
        "ÉĻn"
      ],
      [
        "ĠËĮaÉªn",
        "ÉĻm"
      ],
      [
        "ËĪuËĲ",
        "t"
      ],
      [
        "Ġh",
        "ËĪaÊĬ"
      ],
      [
        "Ġt",
        "ËĪanto"
      ],
      [
        "ĠhÉĲ",
        "z"
      ],
      [
        "Ġs",
        "ËĪÊĮÉ¾"
      ],
      [
        "Ġn",
        "o"
      ],
      [
        "Ġt",
        "ËĪÉĶËĲ"
      ],
      [
        "Ġz",
        "ËĪaÉª"
      ],
      [
        "ĠtÉķËĪiÉĽ",
        "Éľ"
      ],
      [
        "Ġko",
        "zËĪi"
      ],
      [
        "Ġk",
        "ËĪei"
      ],
      [
        "Ã°",
        "ËĪÉĶÉ¾"
      ],
      [
        "ËĮÉĶ",
        "Êģ"
      ],
      [
        "Ġt",
        "ËĪÊĮÉ¾"
      ],
      [
        "ĠÊĲ",
        "ËĪÉĻ"
      ],
      [
        "ĠÉķËĪy",
        "ÉĽÉľ"
      ],
      [
        "ĠmËĮÊĬ",
        "ÉŁÊ°eËĲ"
      ],
      [
        "m",
        "f"
      ],
      [
        "Ġv",
        "ËĪiËĲdÉľ"
      ],
      [
        "k",
        "ËĪa"
      ],
      [
        "ĠÉĲ",
        "É¡"
      ],
      [
        "k",
        "w"
      ],
      [
        "ĠÊģ",
        "ÉĽ"
      ],
      [
        "x",
        "ÉĻn"
      ],
      [
        "Ġd",
        "ÊĬ"
      ],
      [
        "ĠkËĪÊĮÉ¾",
        "nËĮeËĲ"
      ],
      [
        "jËĪaËĲd",
        "aËĲ"
      ],
      [
        "Ġf",
        "ÉĻ"
      ],
      [
        "ĠËĮi",
        "mp"
      ],
      [
        "Ġh",
        "Éªz"
      ],
      [
        "Ġ",
        "Ê°Ïĩ"
      ],
      [
        "ËĪoËĲ",
        "ni"
      ],
      [
        "Ġx",
        "ËĪiÉľ"
      ],
      [
        "ËĪeËĲ",
        "sÊĪ"
      ],
      [
        "Êı",
        "bÉľ"
      ],
      [
        "ËĮÉĶÉ¾",
        "ke"
      ],
      [
        "ĠÉ¡",
        "ËĪÉĻÊĬ"
      ],
      [
        "ËĪÉª",
        "ÊĥÉĻn"
      ],
      [
        "l",
        "es"
      ],
      [
        "Ġf",
        "ËĪiËĲ"
      ],
      [
        "É¡",
        "tÉĻ"
      ],
      [
        "ËĪeËĲ",
        "re"
      ],
      [
        "Ġv",
        "ËĮaËĲ"
      ],
      [
        "Ġ",
        "ËĪeÉª"
      ],
      [
        "Ġm",
        "ËĪuÉĻÉľn"
      ],
      [
        "ĠÉ¡ËĪÊĬ",
        "d"
      ],
      [
        "ĠmËĮa",
        "Éªn"
      ],
      [
        "z",
        "ËĪe"
      ],
      [
        "ĠlËĪi",
        "Éľ"
      ],
      [
        "Ġm",
        "u"
      ],
      [
        "Ġk",
        "ËĮÉĽl"
      ],
      [
        "Ġj",
        "ËĮÉĻh"
      ],
      [
        "Ġf",
        "ËĮÉĶÉ¾"
      ],
      [
        "f",
        "É¹"
      ],
      [
        "Ġk",
        "ËĪaÉªn"
      ],
      [
        "ĠËĪÉĴ",
        "lsÉĻÊĬ"
      ],
      [
        "Î¸",
        "ÉªÅĭ"
      ],
      [
        "Ġth",
        "ËĪonÉ¡Éľ"
      ],
      [
        "t",
        "ËĪÉĳ"
      ],
      [
        "Î¸j",
        "o"
      ],
      [
        "m",
        "ËĪÉĶ"
      ],
      [
        "Ġ",
        "os"
      ],
      [
        "Ġs",
        "ÊĬ"
      ],
      [
        "ĠsËĪÊĮ",
        "mÉĻ"
      ],
      [
        "ĠvËĮÉĽ",
        "n"
      ],
      [
        "n",
        "ËĪo"
      ],
      [
        "ĠËĪak",
        "tÊĥuËĲ"
      ],
      [
        "É£",
        "a"
      ],
      [
        "ĠtÊ°",
        "i"
      ],
      [
        "Ġf",
        "ËĮi"
      ],
      [
        "Ġv",
        "ËĪÉĽl"
      ],
      [
        "ĠtËĪu",
        "tËĲi"
      ],
      [
        "x",
        "os"
      ]
    ]
  }
}